{
  "version": "1.0",
  "truncation": null,
  "padding": null,
  "added_tokens": [
    {
      "id": 0,
      "content": "[PAD]",
      "single_word": false,
      "lstrip": false,
      "rstrip": false,
      "normalized": false,
      "special": true
    },
    {
      "id": 1,
      "content": "[UNK]",
      "single_word": false,
      "lstrip": false,
      "rstrip": false,
      "normalized": false,
      "special": true
    },
    {
      "id": 2,
      "content": "<s>",
      "single_word": false,
      "lstrip": false,
      "rstrip": false,
      "normalized": false,
      "special": true
    },
    {
      "id": 3,
      "content": "</s>",
      "single_word": false,
      "lstrip": false,
      "rstrip": false,
      "normalized": false,
      "special": true
    }
  ],
  "normalizer": null,
  "pre_tokenizer": {
    "type": "Whitespace"
  },
  "post_processor": null,
  "decoder": {
    "type": "BPEDecoder",
    "suffix": "</w>"
  },
  "model": {
    "type": "BPE",
    "dropout": null,
    "unk_token": "[UNK]",
    "continuing_subword_prefix": null,
    "end_of_word_suffix": null,
    "fuse_unk": false,
    "byte_fallback": false,
    "ignore_merges": false,
    "vocab": {
      "[PAD]": 0,
      "[UNK]": 1,
      "<s>": 2,
      "</s>": 3,
      "!": 4,
      "\"": 5,
      "%": 6,
      "(": 7,
      ")": 8,
      ",": 9,
      "-": 10,
      ".": 11,
      "/": 12,
      "0": 13,
      "1": 14,
      "2": 15,
      "3": 16,
      "4": 17,
      "5": 18,
      "6": 19,
      "7": 20,
      "8": 21,
      "9": 22,
      ":": 23,
      ";": 24,
      "?": 25,
      "A": 26,
      "F": 27,
      "I": 28,
      "S": 29,
      "W": 30,
      "X": 31,
      "a": 32,
      "b": 33,
      "c": 34,
      "e": 35,
      "g": 36,
      "h": 37,
      "i": 38,
      "k": 39,
      "l": 40,
      "m": 41,
      "n": 42,
      "o": 43,
      "p": 44,
      "r": 45,
      "s": 46,
      "t": 47,
      "u": 48,
      "v": 49,
      "y": 50,
      "«": 51,
      "»": 52,
      "é": 53,
      "А": 54,
      "Б": 55,
      "В": 56,
      "Г": 57,
      "Д": 58,
      "Е": 59,
      "Ж": 60,
      "З": 61,
      "И": 62,
      "Й": 63,
      "К": 64,
      "Л": 65,
      "М": 66,
      "Н": 67,
      "О": 68,
      "П": 69,
      "Р": 70,
      "С": 71,
      "Т": 72,
      "У": 73,
      "Ф": 74,
      "Х": 75,
      "Ц": 76,
      "Ч": 77,
      "Ш": 78,
      "Ъ": 79,
      "Ы": 80,
      "Ь": 81,
      "Э": 82,
      "Я": 83,
      "а": 84,
      "б": 85,
      "в": 86,
      "г": 87,
      "д": 88,
      "е": 89,
      "ж": 90,
      "з": 91,
      "и": 92,
      "й": 93,
      "к": 94,
      "л": 95,
      "м": 96,
      "н": 97,
      "о": 98,
      "п": 99,
      "р": 100,
      "с": 101,
      "т": 102,
      "у": 103,
      "ф": 104,
      "х": 105,
      "ц": 106,
      "ч": 107,
      "ш": 108,
      "щ": 109,
      "ъ": 110,
      "ы": 111,
      "ь": 112,
      "э": 113,
      "ю": 114,
      "я": 115,
      "ё": 116,
      "–": 117,
      "“": 118,
      "„": 119,
      "•": 120,
      "…": 121,
      "то": 122,
      "не": 123,
      "ть": 124,
      "но": 125,
      "на": 126,
      "ни": 127,
      "ра": 128,
      "ет": 129,
      "ст": 130,
      "ко": 131,
      "по": 132,
      "ро": 133,
      "ва": 134,
      "во": 135,
      "ре": 136,
      "ли": 137,
      "ся": 138,
      "го": 139,
      "те": 140,
      "ка": 141,
      "се": 142,
      "что": 143,
      "мо": 144,
      "ль": 145,
      "ри": 146,
      "та": 147,
      "да": 148,
      "ла": 149,
      "хо": 150,
      "ло": 151,
      "до": 152,
      "бо": 153,
      "ен": 154,
      "за": 155,
      "де": 156,
      "ма": 157,
      "про": 158,
      "че": 159,
      "ны": 160,
      "вы": 161,
      "жи": 162,
      "ле": 163,
      "ве": 164,
      "же": 165,
      "си": 166,
      "му": 167,
      "ми": 168,
      "об": 169,
      "ти": 170,
      "ви": 171,
      "ки": 172,
      "ди": 173,
      "это": 174,
      "лю": 175,
      "от": 176,
      "чи": 177,
      "бы": 178,
      "ру": 179,
      "ча": 180,
      "при": 181,
      "ют": 182,
      "со": 183,
      "са": 184,
      "все": 185,
      "ме": 186,
      "сть": 187,
      "ля": 188,
      "ци": 189,
      "сто": 190,
      "ше": 191,
      "ще": 192,
      "ста": 193,
      "ться": 194,
      "бе": 195,
      "гда": 196,
      "пе": 197,
      "ния": 198,
      "ется": 199,
      "ры": 200,
      "мы": 201,
      "сь": 202,
      "жиз": 203,
      "раз": 204,
      "ут": 205,
      "сти": 206,
      "как": 207,
      "ние": 208,
      "ете": 209,
      "лу": 210,
      "ши": 211,
      "сли": 212,
      "кото": 213,
      "ги": 214,
      "из": 215,
      "сво": 216,
      "он": 217,
      "жно": 218,
      "вать": 219,
      "би": 220,
      "рабо": 221,
      "га": 222,
      "ку": 223,
      "па": 224,
      "зна": 225,
      "щи": 226,
      "льно": 227,
      "ну": 228,
      "так": 229,
      "ду": 230,
      "мен": 231,
      "ту": 232,
      "жа": 233,
      "По": 234,
      "бя": 235,
      "пси": 236,
      "ком": 237,
      "ные": 238,
      "ря": 239,
      "когда": 240,
      "ак": 241,
      "пре": 242,
      "чу": 243,
      "которы": 244,
      "нима": 245,
      "стра": 246,
      "кой": 247,
      "бу": 248,
      "дру": 249,
      "тся": 250,
      "надо": 251,
      "ис": 252,
      "чно": 253,
      "ты": 254,
      "дела": 255,
      "себя": 256,
      "лько": 257,
      "лове": 258,
      "бле": 259,
      "если": 260,
      "нь": 261,
      "или": 262,
      "ша": 263,
      "жизни": 264,
      "пи": 265,
      "себе": 266,
      "пробле": 267,
      "ходи": 268,
      "само": 269,
      "ня": 270,
      "пра": 271,
      "ски": 272,
      "кон": 273,
      "ень": 274,
      "ются": 275,
      "».": 276,
      "Но": 277,
      "дет": 278,
      "есть": 279,
      "она": 280,
      "чего": 281,
      "челове": 282,
      "енно": 283,
      "жизнь": 284,
      "ей": 285,
      "они": 286,
      "сле": 287,
      "хи": 288,
      "тому": 289,
      "»,": 290,
      "вно": 291,
      "для": 292,
      "том": 293,
      "обще": 294,
      "су": 295,
      "кто": 296,
      "шь": 297,
      "ная": 298,
      "хоч": 299,
      "психо": 300,
      "ву": 301,
      "дно": 302,
      "только": 303,
      "ство": 304,
      "гово": 305,
      "мож": 306,
      "ный": 307,
      "жела": 308,
      "делать": 309,
      "Не": 310,
      "ска": 311,
      "тре": 312,
      "це": 313,
      "вам": 314,
      "люби": 315,
      "пере": 316,
      "вет": 317,
      "сы": 318,
      "сча": 319,
      "стви": 320,
      "под": 321,
      "бой": 322,
      "жен": 323,
      "ин": 324,
      "стоя": 325,
      "мыс": 326,
      "психоло": 327,
      "йте": 328,
      "пу": 329,
      "тя": 330,
      "рас": 331,
      "муж": 332,
      "отно": 333,
      "него": 334,
      "ного": 335,
      "вает": 336,
      "чтобы": 337,
      "хоро": 338,
      "боль": 339,
      "пер": 340,
      "ба": 341,
      "ем": 342,
      "спо": 343,
      "нее": 344,
      "вер": 345,
      "быть": 346,
      "ции": 347,
      "дь": 348,
      "зы": 349,
      "соб": 350,
      "смыс": 351,
      "нет": 352,
      "воз": 353,
      "вот": 354,
      "можно": 355,
      "чем": 356,
      "ных": 357,
      "приме": 358,
      "свои": 359,
      "работа": 360,
      "которые": 361,
      "его": 362,
      "еще": 363,
      "лет": 364,
      "мне": 365,
      "слу": 366,
      "потому": 367,
      "вас": 368,
      "чув": 369,
      "может": 370,
      "На": 371,
      "вре": 372,
      "пы": 373,
      "ность": 374,
      "сте": 375,
      "рен": 376,
      "меня": 377,
      "отноше": 378,
      "Это": 379,
      "ды": 380,
      "ха": 381,
      "кого": 382,
      "реа": 383,
      "дол": 384,
      "чески": 385,
      "дите": 386,
      "вро": 387,
      "гу": 388,
      "дете": 389,
      "пла": 390,
      "сно": 391,
      "ющи": 392,
      "нас": 393,
      "ным": 394,
      "человек": 395,
      "Если": 396,
      "уже": 397,
      "эмо": 398,
      "ний": 399,
      "тельно": 400,
      "жить": 401,
      "тите": 402,
      "ция": 403,
      "психи": 404,
      "ходит": 405,
      "счаст": 406,
      "Что": 407,
      "вне": 408,
      "ему": 409,
      "оч": 410,
      "тут": 411,
      "стро": 412,
      "ства": 413,
      "тель": 414,
      "дей": 415,
      "говори": 416,
      "Да": 417,
      "Как": 418,
      "вя": 419,
      "мя": 420,
      "пь": 421,
      "удо": 422,
      "нии": 423,
      "ков": 424,
      "полу": 425,
      "тер": 426,
      "даже": 427,
      "хочет": 428,
      "желания": 429,
      "пример": 430,
      "вля": 431,
      "лся": 432,
      "мь": 433,
      "пло": 434,
      "шо": 435,
      "семь": 436,
      "хотите": 437,
      "вится": 438,
      "люб": 439,
      "любо": 440,
      "чина": 441,
      "дума": 442,
      "время": 443,
      "Ко": 444,
      "ее": 445,
      "их": 446,
      "рма": 447,
      "ско": 448,
      "сси": 449,
      "ца": 450,
      "ща": 451,
      "невро": 452,
      "ности": 453,
      "ств": 454,
      "понима": 455,
      "вопро": 456,
      "вообще": 457,
      "лиз": 458,
      "тех": 459,
      "чита": 460,
      "чины": 461,
      "чать": 462,
      "без": 463,
      "проблема": 464,
      "зыва": 465,
      "внеш": 466,
      "очень": 467,
      "Про": 468,
      "Так": 469,
      "гла": 470,
      "дя": 471,
      "дра": 472,
      "кти": 473,
      "лы": 474,
      "нра": 475,
      "нут": 476,
      "спе": 477,
      "спра": 478,
      "уве": 479,
      "того": 480,
      "нер": 481,
      "ной": 482,
      "тем": 483,
      "мой": 484,
      "собой": 485,
      "туа": 486,
      "счастли": 487,
      "!»": 488,
      "вь": 489,
      "ке": 490,
      "рет": 491,
      "сло": 492,
      "фе": 493,
      "фо": 494,
      "них": 495,
      "сту": 496,
      "ству": 497,
      "пол": 498,
      "помо": 499,
      "после": 500,
      "родите": 501,
      "воль": 502,
      "тере": 503,
      "просто": 504,
      "сами": 505,
      "стано": 506,
      "луч": 507,
      "менно": 508,
      "ствие": 509,
      "женщи": 510,
      "отношения": 511,
      "зу": 512,
      "иг": 513,
      "кру": 514,
      "много": 515,
      "рт": 516,
      "счита": 517,
      "тра": 518,
      "яс": 519,
      "нечно": 520,
      "мог": 521,
      "такой": 522,
      "хотя": 523,
      "жив": 524,
      "ситуа": 525,
      "людей": 526,
      "всегда": 527,
      "проблемы": 528,
      "хочется": 529,
      "Вы": 530,
      "При": 531,
      "бра": 532,
      "именно": 533,
      "обо": 534,
      "оди": 535,
      "фи": 536,
      "чь": 537,
      "эти": 538,
      "радо": 539,
      "реши": 540,
      "лик": 541,
      "каж": 542,
      "льная": 543,
      "проми": 544,
      "обра": 545,
      "этом": 546,
      "этого": 547,
      "этому": 548,
      "люди": 549,
      "циона": 550,
      "работу": 551,
      "други": 552,
      "конф": 553,
      "трево": 554,
      "интере": 555,
      "невроти": 556,
      "лучше": 557,
      "промис": 558,
      "Ну": 559,
      "ге": 560,
      "дна": 561,
      "день": 562,
      "кри": 563,
      "нок": 564,
      "вание": 565,
      "реше": 566,
      "дает": 567,
      "вый": 568,
      "образ": 569,
      "циа": 570,
      "пред": 571,
      "который": 572,
      "друго": 573,
      "сказа": 574,
      "хорошо": 575,
      "способ": 576,
      "пыта": 577,
      "детей": 578,
      "удоволь": 579,
      "бро": 580,
      "вле": 581,
      "внут": 582,
      "где": 583,
      "зво": 584,
      "кла": 585,
      "нно": 586,
      "ую": 587,
      "учи": 588,
      "яза": 589,
      "ничего": 590,
      "ваться": 591,
      "важно": 592,
      "лись": 593,
      "хочу": 594,
      "лось": 595,
      "бор": 596,
      "зави": 597,
      "дело": 598,
      "проис": 599,
      "ными": 600,
      "жива": 601,
      "лей": 602,
      "жена": 603,
      "кие": 604,
      "сам": 605,
      "всего": 606,
      "бенок": 607,
      "которо": 608,
      "свою": 609,
      "своей": 610,
      "значи": 611,
      "ную": 612,
      "нужно": 613,
      "возможно": 614,
      "чувство": 615,
      "плохо": 616,
      "спраши": 617,
      "уверен": 618,
      "Он": 619,
      "ал": 620,
      "вни": 621,
      "вся": 622,
      "одно": 623,
      "пя": 624,
      "тно": 625,
      "уж": 626,
      "цен": 627,
      "эта": 628,
      "ях": 629,
      "тогда": 630,
      "ней": 631,
      "например": 632,
      "нить": 633,
      "стве": 634,
      "конечно": 635,
      "ребенок": 636,
      "лично": 637,
      "кая": 638,
      "логи": 639,
      "дом": 640,
      "доро": 641,
      "деть": 642,
      "деле": 643,
      "чему": 644,
      "обяза": 645,
      "вить": 646,
      "принима": 647,
      "совет": 648,
      "разу": 649,
      "компромис": 650,
      "иска": 651,
      "нять": 652,
      "йтесь": 653,
      "больше": 654,
      "смысл": 655,
      "любви": 656,
      "любовь": 657,
      "нравится": 658,
      "счастливы": 659,
      "могут": 660,
      "решить": 661,
      "конфлик": 662,
      "?»": 663,
      "Ве": 664,
      "Все": 665,
      "Ни": 666,
      "От": 667,
      "ан": 668,
      "вз": 669,
      "вме": 670,
      "гля": 671,
      "кра": 672,
      "оцен": 673,
      "пря": 674,
      "сет": 675,
      "ясь": 676,
      "недо": 677,
      "над": 678,
      "ника": 679,
      "кое": 680,
      "посту": 681,
      "вой": 682,
      "теря": 683,
      "льта": 684,
      "льные": 685,
      "дать": 686,
      "хоте": 687,
      "дома": 688,
      "боле": 689,
      "зара": 690,
      "мая": 691,
      "лег": 692,
      "объ": 693,
      "кий": 694,
      "ким": 695,
      "любой": 696,
      "сов": 697,
      "всем": 698,
      "стори": 699,
      "стати": 700,
      "нием": 701,
      "которых": 702,
      "будет": 703,
      "самооцен": 704,
      "вное": 705,
      "счасть": 706,
      "психологи": 707,
      "смысла": 708,
      "случа": 709,
      "Когда": 710,
      "вопрос": 711,
      "зависи": 712,
      "происходит": 713,
      "значит": 714,
      "Ка": 715,
      "Мо": 716,
      "дут": 717,
      "ез": 718,
      "жу": 719,
      "зи": 720,
      "име": 721,
      "йти": 722,
      "кре": 723,
      "клю": 724,
      "лен": 725,
      "ленно": 726,
      "ом": 727,
      "осо": 728,
      "одна": 729,
      "уме": 730,
      "уще": 731,
      "норма": 732,
      "начина": 733,
      "ним": 734,
      "рая": 735,
      "пово": 736,
      "поло": 737,
      "вая": 738,
      "вол": 739,
      "там": 740,
      "лага": 741,
      "лом": 742,
      "дер": 743,
      "выра": 744,
      "живать": 745,
      "сили": 746,
      "было": 747,
      "час": 748,
      "привы": 749,
      "меч": 750,
      "работе": 751,
      "жать": 752,
      "жающи": 753,
      "Потому": 754,
      "преде": 755,
      "страш": 756,
      "пить": 757,
      "ходить": 758,
      "прави": 759,
      "ский": 760,
      "след": 761,
      "психологу": 762,
      "мужчины": 763,
      "перь": 764,
      "внешность": 765,
      "зульта": 766,
      "живут": 767,
      "удовольствие": 768,
      "обязательно": 769,
      "За": 770,
      "ОЛ": 771,
      "Ра": 772,
      "ар": 773,
      "бен": 774,
      "жды": 775,
      "йчас": 776,
      "крас": 777,
      "мно": 778,
      "оста": 779,
      "окру": 780,
      "опреде": 781,
      "смо": 782,
      "тро": 783,
      "три": 784,
      "юсь": 785,
      "нем": 786,
      "нар": 787,
      "нача": 788,
      "настоя": 789,
      "рак": 790,
      "пока": 791,
      "полюби": 792,
      "постоя": 793,
      "вари": 794,
      "ваша": 795,
      "ваются": 796,
      "вос": 797,
      "ребен": 798,
      "либо": 799,
      "личи": 800,
      "лишь": 801,
      "гото": 802,
      "теа": 803,
      "какой": 804,
      "казыва": 805,
      "сер": 806,
      "сейчас": 807,
      "льных": 808,
      "хоче": 809,
      "депре": 810,
      "проси": 811,
      "проти": 812,
      "продол": 813,
      "чере": 814,
      "выбра": 815,
      "живет": 816,
      "причины": 817,
      "состоя": 818,
      "шей": 819,
      "раздра": 820,
      "ших": 821,
      "стране": 822,
      "суще": 823,
      "хороши": 824,
      "работает": 825,
      "харак": 826,
      "говорить": 827,
      "полне": 828,
      "родители": 829,
      "один": 830,
      "решение": 831,
      "алкого": 832,
      "вместо": 833,
      "окружающи": 834,
      "ребенка": 835,
      "хочешь": 836,
      ").": 837,
      "Лю": 838,
      "Мне": 839,
      "Са": 840,
      "Ти": 841,
      "бла": 842,
      "вто": 843,
      "вст": 844,
      "дня": 845,
      "ела": 846,
      "ешь": 847,
      "зо": 848,
      "зре": 849,
      "ид": 850,
      "им": 851,
      "ищ": 852,
      "ощ": 853,
      "одо": 854,
      "пле": 855,
      "рб": 856,
      "спа": 857,
      "сделать": 858,
      "тру": 859,
      "уда": 860,
      "хва": 861,
      "чки": 862,
      "шка": 863,
      "шки": 864,
      "точно": 865,
      "ном": 866,
      "ними": 867,
      "нига": 868,
      "пор": 869,
      "пода": 870,
      "подо": 871,
      "пове": 872,
      "потом": 873,
      "рова": 874,
      "вают": 875,
      "води": 876,
      "ред": 877,
      "реак": 878,
      "реша": 879,
      "льный": 880,
      "рит": 881,
      "ход": 882,
      "бои": 883,
      "дения": 884,
      "мать": 885,
      "чее": 886,
      "вые": 887,
      "житель": 888,
      "ведь": 889,
      "мир": 890,
      "мира": 891,
      "виться": 892,
      "был": 893,
      "была": 894,
      "часто": 895,
      "соц": 896,
      "цию": 897,
      "сторо": 898,
      "разви": 899,
      "гие": 900,
      "бира": 901,
      "льной": 902,
      "туда": 903,
      "Почему": 904,
      "буд": 905,
      "буду": 906,
      "друг": 907,
      "друз": 908,
      "проблем": 909,
      "самое": 910,
      "самом": 911,
      "человеку": 912,
      "ствия": 913,
      "баты": 914,
      "своим": 915,
      "своих": 916,
      "чувству": 917,
      "пыт": 918,
      "реализ": 919,
      "ческие": 920,
      "снова": 921,
      "эмоции": 922,
      "эмоциона": 923,
      "получа": 924,
      "вляется": 925,
      "думают": 926,
      "сколько": 927,
      "ствен": 928,
      "ственно": 929,
      "дят": 930,
      "специа": 931,
      "женщина": 932,
      "игры": 933,
      "хотят": 934,
      "этим": 935,
      "кажется": 936,
      "внутрен": 937,
      "искать": 938,
      "краси": 939,
      "легче": 940,
      "стория": 941,
      "осозна": 942,
      "ущерб": 943,
      "Раз": 944,
      "реализо": 945,
      "),": 946,
      ".)": 947,
      "Вот": 948,
      "До": 949,
      "Со": 950,
      "вра": 951,
      "вши": 952,
      "вку": 953,
      "вные": 954,
      "влет": 955,
      "вдруг": 956,
      "гра": 957,
      "гру": 958,
      "глу": 959,
      "жда": 960,
      "зя": 961,
      "зис": 962,
      "здоро": 963,
      "ква": 964,
      "кси": 965,
      "кры": 966,
      "крет": 967,
      "книга": 968,
      "мет": 969,
      "нс": 970,
      "свя": 971,
      "слы": 972,
      "сразу": 973,
      "ува": 974,
      "усили": 975,
      "ффе": 976,
      "хло": 977,
      "шенно": 978,
      "щь": 979,
      "ьез": 980,
      "эффе": 981,
      "яться": 982,
      "является": 983,
      "нец": 984,
      "низ": 985,
      "рациона": 986,
      "сты": 987,
      "поз": 988,
      "пой": 989,
      "поэтому": 990,
      "потеря": 991,
      "ров": 992,
      "рот": 993,
      "ровать": 994,
      "ван": 995,
      "вается": 996,
      "вое": 997,
      "результа": 998,
      "гов": 999,
      "тери": 1000,
      "тесь": 1001,
      "мои": 1002,
      "такая": 1003,
      "такое": 1004,
      "дости": 1005,
      "зато": 1006,
      "зада": 1007,
      "занима": 1008,
      "деву": 1009,
      "выяс": 1010,
      "лез": 1011,
      "вести": 1012,
      "жение": 1013,
      "сильно": 1014,
      "муже": 1015,
      "оби": 1016,
      "тия": 1017,
      "кино": 1018,
      "рует": 1019,
      "самы": 1020,
      "самая": 1021,
      "всех": 1022,
      "цией": 1023,
      "ставля": 1024,
      "кую": 1025,
      "знаю": 1026,
      "знают": 1027,
      "жает": 1028,
      "Поэтому": 1029,
      "рят": 1030,
      "писа": 1031,
      "дети": 1032,
      "детстве": 1033,
      "желание": 1034,
      "пережива": 1035,
      "поддер": 1036,
      "психолога": 1037,
      "мужчина": 1038,
      "большо": 1039,
      "возра": 1040,
      "работать": 1041,
      "долж": 1042,
      "ющие": 1043,
      "эмоция": 1044,
      "психика": 1045,
      "строй": 1046,
      "пью": 1047,
      "пья": 1048,
      "удовлет": 1049,
      "получи": 1050,
      "семье": 1051,
      "ссии": 1052,
      "главное": 1053,
      "нервни": 1054,
      "становится": 1055,
      "ситуации": 1056,
      "радость": 1057,
      "тревоги": 1058,
      "кризис": 1059,
      "клас": 1060,
      "учиться": 1061,
      "счастливым": 1062,
      "конфликта": 1063,
      "Ведь": 1064,
      "более": 1065,
      "счастье": 1066,
      "имеет": 1067,
      "нарко": 1068,
      "постоянно": 1069,
      "серьез": 1070,
      "характер": 1071,
      "окружающих": 1072,
      "Само": 1073,
      "идти": 1074,
      "ищет": 1075,
      "соцсет": 1076,
      "будто": 1077,
      "удовлетво": 1078,
      "?».": 1079,
      "?»,": 1080,
      "Для": 1081,
      "ДОЛ": 1082,
      "Есть": 1083,
      "Или": 1084,
      "Она": 1085,
      "Они": 1086,
      "Пред": 1087,
      "Та": 1088,
      "аг": 1089,
      "бли": 1090,
      "бсо": 1091,
      "вная": 1092,
      "втра": 1093,
      "дни": 1094,
      "дво": 1095,
      "екти": 1096,
      "жнее": 1097,
      "ит": 1098,
      "лень": 1099,
      "нство": 1100,
      "остано": 1101,
      "ск": 1102,
      "сла": 1103,
      "ссо": 1104,
      "сут": 1105,
      "ху": 1106,
      "цы": 1107,
      "чет": 1108,
      "шко": 1109,
      "ычно": 1110,
      "той": 1111,
      "некоторые": 1112,
      "несчаст": 1113,
      "ное": 1114,
      "ногда": 1115,
      "называ": 1116,
      "наобо": 1117,
      "нию": 1118,
      "никогда": 1119,
      "стно": 1120,
      "пола": 1121,
      "поис": 1122,
      "поня": 1123,
      "попыта": 1124,
      "позво": 1125,
      "попыт": 1126,
      "вашей": 1127,
      "волю": 1128,
      "вовсе": 1129,
      "рее": 1130,
      "тера": 1131,
      "тебя": 1132,
      "теперь": 1133,
      "кан": 1134,
      "сери": 1135,
      "моз": 1136,
      "мость": 1137,
      "могу": 1138,
      "рить": 1139,
      "таки": 1140,
      "дале": 1141,
      "дают": 1142,
      "дания": 1143,
      "лась": 1144,
      "ходят": 1145,
      "бовать": 1146,
      "заслу": 1147,
      "завтра": 1148,
      "дене": 1149,
      "дево": 1150,
      "мас": 1151,
      "прочее": 1152,
      "пробовать": 1153,
      "чер": 1154,
      "вых": 1155,
      "живу": 1156,
      "мире": 1157,
      "обе": 1158,
      "обычно": 1159,
      "дит": 1160,
      "лютно": 1161,
      "отве": 1162,
      "ответ": 1163,
      "совер": 1164,
      "мей": 1165,
      "мер": 1166,
      "мена": 1167,
      "ций": 1168,
      "стара": 1169,
      "стаби": 1170,
      "станет": 1171,
      "которая": 1172,
      "изме": 1173,
      "жной": 1174,
      "работы": 1175,
      "парт": 1176,
      "знаете": 1177,
      "нуть": 1178,
      "Понима": 1179,
      "компа": 1180,
      "ряд": 1181,
      "преодо": 1182,
      "страхи": 1183,
      "будете": 1184,
      "делает": 1185,
      "шая": 1186,
      "пита": 1187,
      "детства": 1188,
      "человека": 1189,
      "жизнью": 1190,
      "общение": 1191,
      "суж": 1192,
      "дной": 1193,
      "говор": 1194,
      "можете": 1195,
      "треть": 1196,
      "цеп": 1197,
      "любит": 1198,
      "перед": 1199,
      "переста": 1200,
      "жены": 1201,
      "больши": 1202,
      "спокой": 1203,
      "слуша": 1204,
      "чувства": 1205,
      "Например": 1206,
      "стер": 1207,
      "ющим": 1208,
      "психически": 1209,
      "вятся": 1210,
      "получать": 1211,
      "люблю": 1212,
      "думаете": 1213,
      "понимаю": 1214,
      "фор": 1215,
      "женщины": 1216,
      "игра": 1217,
      "одино": 1218,
      "другим": 1219,
      "других": 1220,
      "интересно": 1221,
      "образо": 1222,
      "другому": 1223,
      "сказал": 1224,
      "сказать": 1225,
      "броса": 1226,
      "внутри": 1227,
      "спрашивать": 1228,
      "одного": 1229,
      "пять": 1230,
      "советую": 1231,
      "заранее": 1232,
      "зарабаты": 1233,
      "объяс": 1234,
      "самооценкой": 1235,
      "нормально": 1236,
      "волне": 1237,
      "начала": 1238,
      "настояще": 1239,
      "вариан": 1240,
      "благо": 1241,
      "ощу": 1242,
      "специали": 1243,
      "большой": 1244,
      "Самое": 1245,
      "ДОЛЖ": 1246,
      "бсолютно": 1247,
      "наоборот": 1248,
      "поиски": 1249,
      "совершенно": 1250,
      "преодоле": 1251,
      "Ва": 1252,
      "Во": 1253,
      "Дру": 1254,
      "Еще": 1255,
      "Жен": 1256,
      "История": 1257,
      "КА": 1258,
      "Ме": 1259,
      "Мен": 1260,
      "Нет": 1261,
      "Одна": 1262,
      "Пе": 1263,
      "Пра": 1264,
      "Ре": 1265,
      "Се": 1266,
      "ТО": 1267,
      "Те": 1268,
      "ХО": 1269,
      "Хо": 1270,
      "Че": 1271,
      "ами": 1272,
      "вленно": 1273,
      "вполне": 1274,
      "дется": 1275,
      "еже": 1276,
      "еха": 1277,
      "иде": 1278,
      "лле": 1279,
      "лки": 1280,
      "мп": 1281,
      "ню": 1282,
      "нные": 1283,
      "нная": 1284,
      "ор": 1285,
      "оф": 1286,
      "опа": 1287,
      "особ": 1288,
      "оказыва": 1289,
      "очере": 1290,
      "опять": 1291,
      "плю": 1292,
      "сп": 1293,
      "сва": 1294,
      "сре": 1295,
      "ской": 1296,
      "уро": 1297,
      "ума": 1298,
      "уча": 1299,
      "уходит": 1300,
      "успе": 1301,
      "физ": 1302,
      "фак": 1303,
      "цо": 1304,
      "чка": 1305,
      "чные": 1306,
      "чный": 1307,
      "шу": 1308,
      "шта": 1309,
      "шло": 1310,
      "шую": 1311,
      "щенно": 1312,
      "эк": 1313,
      "эту": 1314,
      "юще": 1315,
      "ям": 1316,
      "ями": 1317,
      "тор": 1318,
      "тот": 1319,
      "нель": 1320,
      "неве": 1321,
      "нега": 1322,
      "непре": 1323,
      "невозможно": 1324,
      "нова": 1325,
      "най": 1326,
      "нау": 1327,
      "нару": 1328,
      "наше": 1329,
      "начать": 1330,
      "напря": 1331,
      "наличи": 1332,
      "ник": 1333,
      "ников": 1334,
      "ница": 1335,
      "ково": 1336,
      "конец": 1337,
      "поль": 1338,
      "потре": 1339,
      "почему": 1340,
      "рож": 1341,
      "рома": 1342,
      "роди": 1343,
      "роме": 1344,
      "росси": 1345,
      "ваю": 1346,
      "вания": 1347,
      "вайте": 1348,
      "вого": 1349,
      "сят": 1350,
      "каза": 1351,
      "сек": 1352,
      "семей": 1353,
      "чтоб": 1354,
      "мол": 1355,
      "льше": 1356,
      "давно": 1357,
      "давить": 1358,
      "лай": 1359,
      "хода": 1360,
      "лов": 1361,
      "лож": 1362,
      "дой": 1363,
      "док": 1364,
      "домой": 1365,
      "ены": 1366,
      "дели": 1367,
      "мамы": 1368,
      "матери": 1369,
      "проигры": 1370,
      "ческа": 1371,
      "чества": 1372,
      "выми": 1373,
      "выбор": 1374,
      "выходить": 1375,
      "жите": 1376,
      "житься": 1377,
      "живает": 1378,
      "лечи": 1379,
      "вели": 1380,
      "жени": 1381,
      "жерт": 1382,
      "сил": 1383,
      "симп": 1384,
      "мужа": 1385,
      "миру": 1386,
      "обма": 1387,
      "обходи": 1388,
      "тив": 1389,
      "тивно": 1390,
      "винова": 1391,
      "кими": 1392,
      "отказыва": 1393,
      "читься": 1394,
      "бывает": 1395,
      "рут": 1396,
      "руково": 1397,
      "часа": 1398,
      "прия": 1399,
      "причи": 1400,
      "призна": 1401,
      "принять": 1402,
      "мере": 1403,
      "лям": 1404,
      "ляться": 1405,
      "ляется": 1406,
      "щения": 1407,
      "свое": 1408,
      "бико": 1409,
      "работ": 1410,
      "куда": 1411,
      "пара": 1412,
      "зная": 1413,
      "знать": 1414,
      "значе": 1415,
      "щих": 1416,
      "льность": 1417,
      "жало": 1418,
      "жаться": 1419,
      "бят": 1420,
      "компью": 1421,
      "комбико": 1422,
      "прекрас": 1423,
      "страха": 1424,
      "страдает": 1425,
      "друж": 1426,
      "исклю": 1427,
      "пит": 1428,
      "самого": 1429,
      "контро": 1430,
      "конкрет": 1431,
      "говорят": 1432,
      "скажу": 1433,
      "цело": 1434,
      "целей": 1435,
      "любимы": 1436,
      "ствительно": 1437,
      "подро": 1438,
      "поднима": 1439,
      "путем": 1440,
      "тяже": 1441,
      "хороше": 1442,
      "первый": 1443,
      "бабу": 1444,
      "зывать": 1445,
      "собствен": 1446,
      "отношений": 1447,
      "реальные": 1448,
      "долго": 1449,
      "Чтобы": 1450,
      "строе": 1451,
      "действительно": 1452,
      "Даже": 1453,
      "вяза": 1454,
      "терпе": 1455,
      "желаниям": 1456,
      "семьи": 1457,
      "семья": 1458,
      "Ком": 1459,
      "щаются": 1460,
      "понимает": 1461,
      "вопросы": 1462,
      "внешности": 1463,
      "слово": 1464,
      "ствует": 1465,
      "помочь": 1466,
      "помощь": 1467,
      "послед": 1468,
      "родителей": 1469,
      "отношениях": 1470,
      "считают": 1471,
      "ситуация": 1472,
      "невротик": 1473,
      "невротиков": 1474,
      "образом": 1475,
      "пытаясь": 1476,
      "броси": 1477,
      "вление": 1478,
      "борь": 1479,
      "которой": 1480,
      "плохой": 1481,
      "спрашивают": 1482,
      "компромиссы": 1483,
      "взро": 1484,
      "глядеть": 1485,
      "хотел": 1486,
      "хотеть": 1487,
      "объекти": 1488,
      "психологически": 1489,
      "случае": 1490,
      "начинает": 1491,
      "мечта": 1492,
      "страшного": 1493,
      "следствие": 1494,
      "красот": 1495,
      "театре": 1496,
      "просить": 1497,
      "выбрать": 1498,
      "состоянии": 1499,
      "раздражитель": 1500,
      "существо": 1501,
      "хорошим": 1502,
      "алкоголиз": 1503,
      "хвата": 1504,
      "водить": 1505,
      "реакция": 1506,
      "стороны": 1507,
      "друзей": 1508,
      "Совет": 1509,
      "вшись": 1510,
      "хлопья": 1511,
      "эффекти": 1512,
      "нервнича": 1513,
      "соцсетях": 1514,
      "далеко": 1515,
      "денег": 1516,
      "Понимаете": 1517,
      "вариант": 1518,
      "Женщи": 1519,
      "Теперь": 1520,
      "особенно": 1521,
      "среди": 1522,
      "физи": 1523,
      "нельзя": 1524,
      "пользу": 1525,
      "россий": 1526,
      "ческая": 1527,
      "контроли": 1528,
      "помощью": 1529,
      "!»,": 1530,
      "-,": 1531,
      "10": 1532,
      "30": 1533,
      "50": 1534,
      "Fa": 1535,
      "bo": 1536,
      "ce": 1537,
      "ok": 1538,
      "Бо": 1539,
      "Бу": 1540,
      "ВК": 1541,
      "ГУ": 1542,
      "Го": 1543,
      "Дела": 1544,
      "ЕГ": 1545,
      "ЕН": 1546,
      "ЕТ": 1547,
      "Жиз": 1548,
      "Жела": 1549,
      "Ин": 1550,
      "Кстати": 1551,
      "Кроме": 1552,
      "Ли": 1553,
      "Лон": 1554,
      "Мы": 1555,
      "МГУ": 1556,
      "НА": 1557,
      "НЕ": 1558,
      "НО": 1559,
      "СЯ": 1560,
      "Ско": 1561,
      "Хот": 1562,
      "Хоч": 1563,
      "ад": 1564,
      "ана": 1565,
      "абсолютно": 1566,
      "бь": 1567,
      "бности": 1568,
      "близ": 1569,
      "вли": 1570,
      "вда": 1571,
      "дли": 1572,
      "дну": 1573,
      "дца": 1574,
      "двой": 1575,
      "ел": 1576,
      "емы": 1577,
      "жь": 1578,
      "жет": 1579,
      "жду": 1580,
      "ить": 1581,
      "ист": 1582,
      "иться": 1583,
      "истори": 1584,
      "история": 1585,
      "иногда": 1586,
      "кт": 1587,
      "кта": 1588,
      "кстати": 1589,
      "лл": 1590,
      "лли": 1591,
      "ок": 1592,
      "оно": 1593,
      "пет": 1594,
      "праз": 1595,
      "прет": 1596,
      "рмо": 1597,
      "рвать": 1598,
      "рпла": 1599,
      "сю": 1600,
      "сда": 1601,
      "ску": 1602,
      "ском": 1603,
      "сдела": 1604,
      "сце": 1605,
      "сфе": 1606,
      "спросить": 1607,
      "твер": 1608,
      "уни": 1609,
      "уби": 1610,
      "усло": 1611,
      "упор": 1612,
      "фле": 1613,
      "хе": 1614,
      "хуже": 1615,
      "цей": 1616,
      "чти": 1617,
      "чке": 1618,
      "чными": 1619,
      "шла": 1620,
      "шком": 1621,
      "тов": 1622,
      "ток": 1623,
      "томо": 1624,
      "тоже": 1625,
      "точки": 1626,
      "нера": 1627,
      "нения": 1628,
      "неуда": 1629,
      "неудовлетво": 1630,
      "нестаби": 1631,
      "необходи": 1632,
      "неприя": 1633,
      "тье": 1634,
      "носи": 1635,
      "новый": 1636,
      "наде": 1637,
      "находи": 1638,
      "наконец": 1639,
      "настрое": 1640,
      "нит": 1641,
      "никак": 1642,
      "нибу": 1643,
      "ницы": 1644,
      "ран": 1645,
      "раста": 1646,
      "равно": 1647,
      "стре": 1648,
      "стка": 1649,
      "стру": 1650,
      "ствам": 1651,
      "косно": 1652,
      "поя": 1653,
      "поку": 1654,
      "поменя": 1655,
      "понять": 1656,
      "посмо": 1657,
      "поху": 1658,
      "помер": 1659,
      "поряд": 1660,
      "почти": 1661,
      "род": 1662,
      "роться": 1663,
      "ваш": 1664,
      "вами": 1665,
      "ваши": 1666,
      "ваших": 1667,
      "вокру": 1668,
      "рены": 1669,
      "рения": 1670,
      "рефле": 1671,
      "лиза": 1672,
      "год": 1673,
      "гой": 1674,
      "года": 1675,
      "голо": 1676,
      "голове": 1677,
      "годня": 1678,
      "кать": 1679,
      "ката": 1680,
      "ками": 1681,
      "какая": 1682,
      "сегодня": 1683,
      "моя": 1684,
      "моти": 1685,
      "момен": 1686,
      "льчи": 1687,
      "льным": 1688,
      "тая": 1689,
      "таль": 1690,
      "тала": 1691,
      "таком": 1692,
      "таким": 1693,
      "дальше": 1694,
      "ладно": 1695,
      "лаге": 1696,
      "хов": 1697,
      "ходной": 1698,
      "ложи": 1699,
      "лога": 1700,
      "дов": 1701,
      "дон": 1702,
      "дох": 1703,
      "довать": 1704,
      "бол": 1705,
      "боя": 1706,
      "бояться": 1707,
      "енных": 1708,
      "заме": 1709,
      "заце": 1710,
      "закан": 1711,
      "завяза": 1712,
      "зарпла": 1713,
      "дем": 1714,
      "дешь": 1715,
      "мама": 1716,
      "мамой": 1717,
      "макси": 1718,
      "малень": 1719,
      "мальчи": 1720,
      "прово": 1721,
      "прове": 1722,
      "прочем": 1723,
      "проходит": 1724,
      "профе": 1725,
      "проводить": 1726,
      "ческо": 1727,
      "высо": 1728,
      "выше": 1729,
      "выход": 1730,
      "выглядеть": 1731,
      "ведет": 1732,
      "ведут": 1733,
      "верит": 1734,
      "жесто": 1735,
      "жения": 1736,
      "жешь": 1737,
      "жении": 1738,
      "сибо": 1739,
      "сиде": 1740,
      "сидень": 1741,
      "мии": 1742,
      "миро": 1743,
      "мите": 1744,
      "минут": 1745,
      "милли": 1746,
      "обре": 1747,
      "обви": 1748,
      "обнима": 1749,
      "обстоя": 1750,
      "обща": 1751,
      "тит": 1752,
      "тить": 1753,
      "титься": 1754,
      "вит": 1755,
      "вила": 1756,
      "вижу": 1757,
      "ких": 1758,
      "дия": 1759,
      "дится": 1760,
      "диаг": 1761,
      "людь": 1762,
      "людя": 1763,
      "любят": 1764,
      "отц": 1765,
      "отсут": 1766,
      "отдох": 1767,
      "числе": 1768,
      "чительно": 1769,
      "были": 1770,
      "рую": 1771,
      "руя": 1772,
      "чая": 1773,
      "чается": 1774,
      "причина": 1775,
      "сообще": 1776,
      "сомне": 1777,
      "согла": 1778,
      "социа": 1779,
      "места": 1780,
      "меша": 1781,
      "месте": 1782,
      "стью": 1783,
      "ляр": 1784,
      "ляет": 1785,
      "ляют": 1786,
      "стом": 1787,
      "стоит": 1788,
      "стать": 1789,
      "жизне": 1790,
      "разве": 1791,
      "разобра": 1792,
      "разбира": 1793,
      "стить": 1794,
      "стика": 1795,
      "ститут": 1796,
      "етесь": 1797,
      "ший": 1798,
      "гих": 1799,
      "изве": 1800,
      "свой": 1801,
      "своем": 1802,
      "своему": 1803,
      "пар": 1804,
      "пать": 1805,
      "пары": 1806,
      "нуж": 1807,
      "нужен": 1808,
      "также": 1809,
      "Пол": 1810,
      "Потом": 1811,
      "ряется": 1812,
      "ряются": 1813,
      "рядом": 1814,
      "чуж": 1815,
      "страдать": 1816,
      "другу": 1817,
      "шанс": 1818,
      "самой": 1819,
      "самостоя": 1820,
      "нят": 1821,
      "практи": 1822,
      "ские": 1823,
      "ских": 1824,
      "кончи": 1825,
      "контак": 1826,
      "конца": 1827,
      "детям": 1828,
      "следу": 1829,
      "вую": 1830,
      "ствовать": 1831,
      "желаний": 1832,
      "желанием": 1833,
      "сказыва": 1834,
      "цели": 1835,
      "любили": 1836,
      "психолог": 1837,
      "психологов": 1838,
      "путе": 1839,
      "пути": 1840,
      "пусти": 1841,
      "расстрой": 1842,
      "рассуж": 1843,
      "относи": 1844,
      "хорошую": 1845,
      "большая": 1846,
      "первое": 1847,
      "смыслов": 1848,
      "примеру": 1849,
      "Надо": 1850,
      "време": 1851,
      "отношение": 1852,
      "реаги": 1853,
      "плане": 1854,
      "насла": 1855,
      "психиа": 1856,
      "психики": 1857,
      "психикой": 1858,
      "строен": 1859,
      "говорите": 1860,
      "пьет": 1861,
      "любовни": 1862,
      "думает": 1863,
      "скорее": 1864,
      "понимают": 1865,
      "проблемах": 1866,
      "справля": 1867,
      "уверены": 1868,
      "вья": 1869,
      "форма": 1870,
      "форт": 1871,
      "помощи": 1872,
      "самих": 1873,
      "становятся": 1874,
      "женщин": 1875,
      "считает": 1876,
      "траге": 1877,
      "живется": 1878,
      "обожа": 1879,
      "фило": 1880,
      "радости": 1881,
      "решили": 1882,
      "кажды": 1883,
      "другие": 1884,
      "интерес": 1885,
      "интересо": 1886,
      "промисс": 1887,
      "деньги": 1888,
      "ванием": 1889,
      "решения": 1890,
      "предлага": 1891,
      "другое": 1892,
      "другой": 1893,
      "сказала": 1894,
      "пытаются": 1895,
      "которому": 1896,
      "плохое": 1897,
      "уверенности": 1898,
      "личност": 1899,
      "принимать": 1900,
      "принимает": 1901,
      "принимают": 1902,
      "компромисс": 1903,
      "компромиссов": 1904,
      "Отве": 1905,
      "гляд": 1906,
      "прямо": 1907,
      "сети": 1908,
      "недоста": 1909,
      "поступить": 1910,
      "домаш": 1911,
      "легко": 1912,
      "счастья": 1913,
      "случаях": 1914,
      "зависит": 1915,
      "зависимость": 1916,
      "Можно": 1917,
      "креп": 1918,
      "креди": 1919,
      "привычно": 1920,
      "следствия": 1921,
      "внешностью": 1922,
      "зультат": 1923,
      "многие": 1924,
      "определяться": 1925,
      "смотреть": 1926,
      "трим": 1927,
      "воспита": 1928,
      "театра": 1929,
      "депрес": 1930,
      "депресси": 1931,
      "против": 1932,
      "противо": 1933,
      "существует": 1934,
      "Люди": 1935,
      "Тиб": 1936,
      "Типа": 1937,
      "встре": 1938,
      "встрет": 1939,
      "подавленно": 1940,
      "подозре": 1941,
      "реакции": 1942,
      "решать": 1943,
      "боится": 1944,
      "боитесь": 1945,
      "друзь": 1946,
      "эмоциональная": 1947,
      "эмоциональной": 1948,
      "внутреннего": 1949,
      "красивыми": 1950,
      "осознает": 1951,
      "гражда": 1952,
      "глубо": 1953,
      "мета": 1954,
      "усилий": 1955,
      "поздно": 1956,
      "достичь": 1957,
      "задача": 1958,
      "задавать": 1959,
      "заниматься": 1960,
      "девушка": 1961,
      "девушки": 1962,
      "обиды": 1963,
      "поддерживать": 1964,
      "возрасте": 1965,
      "должна": 1966,
      "должны": 1967,
      "остановиться": 1968,
      "школе": 1969,
      "попытайтесь": 1970,
      "попытки": 1971,
      "сериа": 1972,
      "девочки": 1973,
      "масшта": 1974,
      "отвеча": 1975,
      "старайтесь": 1976,
      "измени": 1977,
      "компании": 1978,
      "большинство": 1979,
      "форму": 1980,
      "играть": 1981,
      "ДОЛЖЕН": 1982,
      "КАК": 1983,
      "Однажды": 1984,
      "Пере": 1985,
      "Результат": 1986,
      "ХОЧ": 1987,
      "Челове": 1988,
      "орга": 1989,
      "ющее": 1990,
      "негатив": 1991,
      "найдя": 1992,
      "нашем": 1993,
      "напряжение": 1994,
      "наличие": 1995,
      "симптомо": 1996,
      "виноваты": 1997,
      "руководите": 1998,
      "исключительно": 1999,
      "бабушки": 2000,
      "Компромисс": 2001,
      "взрослы": 2002,
      "мечтал": 2003,
      "красоту": 2004,
      "Face": 2005,
      "book": 2006,
      "Лондон": 2007,
      "Хотя": 2008,
      "Хочется": 2009,
      "условно": 2010,
      "нибудь": 2011,
      "коснове": 2012,
      "посмотрим": 2013,
      "похудеть": 2014,
      "порядке": 2015,
      "вокруг": 2016,
      "лизация": 2017,
      "мотива": 2018,
      "талан": 2019,
      "заканчи": 2020,
      "сиденье": 2021,
      "миллио": 2022,
      "обстоятель": 2023,
      "людьми": 2024,
      "людям": 2025,
      "разобраться": 2026,
      "самостоятельно": 2027,
      "масштаб": 2028,
      "Facebook": 2029,
      "!».": 2030,
      "\",": 2031,
      "\".": 2032,
      ")»": 2033,
      ")».": 2034,
      "12": 2035,
      "15": 2036,
      "40": 2037,
      "70": 2038,
      "80": 2039,
      "90": 2040,
      "?!»": 2041,
      "»)": 2042,
      "АВ": 2043,
      "Абсолютно": 2044,
      "БЯ": 2045,
      "Бы": 2046,
      "ВС": 2047,
      "Ву": 2048,
      "ДИ": 2049,
      "Де": 2050,
      "День": 2051,
      "Ему": 2052,
      "Еги": 2053,
      "Евро": 2054,
      "ЕБЯ": 2055,
      "Жва": 2056,
      "Им": 2057,
      "Иногда": 2058,
      "Кто": 2059,
      "Ло": 2060,
      "МО": 2061,
      "Ми": 2062,
      "Мэ": 2063,
      "НИ": 2064,
      "ОБ": 2065,
      "Об": 2066,
      "Оно": 2067,
      "ПР": 2068,
      "Пси": 2069,
      "Пря": 2070,
      "РЕ": 2071,
      "Си": 2072,
      "Сразу": 2073,
      "СЕБЯ": 2074,
      "То": 2075,
      "Ты": 2076,
      "Тре": 2077,
      "Тут": 2078,
      "Тем": 2079,
      "Учиться": 2080,
      "Це": 2081,
      "Чем": 2082,
      "Эта": 2083,
      "аль": 2084,
      "альная": 2085,
      "авари": 2086,
      "ассо": 2087,
      "бр": 2088,
      "блу": 2089,
      "брения": 2090,
      "вен": 2091,
      "вза": 2092,
      "вки": 2093,
      "влю": 2094,
      "впа": 2095,
      "вспо": 2096,
      "вных": 2097,
      "влюб": 2098,
      "вными": 2099,
      "впита": 2100,
      "гро": 2101,
      "гре": 2102,
      "гнуть": 2103,
      "дне": 2104,
      "два": 2105,
      "дная": 2106,
      "двер": 2107,
      "дены": 2108,
      "ер": 2109,
      "ева": 2110,
      "еся": 2111,
      "есте": 2112,
      "емая": 2113,
      "женно": 2114,
      "жный": 2115,
      "жных": 2116,
      "зри": 2117,
      "зда": 2118,
      "зем": 2119,
      "здра": 2120,
      "ици": 2121,
      "исте": 2122,
      "идут": 2123,
      "йно": 2124,
      "йся": 2125,
      "йский": 2126,
      "ксы": 2127,
      "кем": 2128,
      "кции": 2129,
      "лку": 2130,
      "мни": 2131,
      "мете": 2132,
      "нг": 2133,
      "нка": 2134,
      "нци": 2135,
      "нный": 2136,
      "нным": 2137,
      "нную": 2138,
      "нский": 2139,
      "ори": 2140,
      "ожи": 2141,
      "оти": 2142,
      "оча": 2143,
      "опы": 2144,
      "опыт": 2145,
      "основа": 2146,
      "одни": 2147,
      "ошло": 2148,
      "оказа": 2149,
      "орут": 2150,
      "одну": 2151,
      "окончи": 2152,
      "огляд": 2153,
      "пру": 2154,
      "пры": 2155,
      "пис": 2156,
      "писка": 2157,
      "рс": 2158,
      "рю": 2159,
      "рная": 2160,
      "ртуа": 2161,
      "св": 2162,
      "съ": 2163,
      "сра": 2164,
      "сма": 2165,
      "сме": 2166,
      "сну": 2167,
      "снима": 2168,
      "спи": 2169,
      "сня": 2170,
      "свет": 2171,
      "сред": 2172,
      "скую": 2173,
      "сначала": 2174,
      "сформу": 2175,
      "тр": 2176,
      "тность": 2177,
      "тным": 2178,
      "тности": 2179,
      "ум": 2180,
      "уу": 2181,
      "уч": 2182,
      "уко": 2183,
      "уль": 2184,
      "уче": 2185,
      "уму": 2186,
      "уют": 2187,
      "уста": 2188,
      "убе": 2189,
      "уга": 2190,
      "узна": 2191,
      "ужа": 2192,
      "устра": 2193,
      "успо": 2194,
      "уха": 2195,
      "устано": 2196,
      "устроен": 2197,
      "фут": 2198,
      "фон": 2199,
      "чных": 2200,
      "шля": 2201,
      "шкой": 2202,
      "щенных": 2203,
      "ый": 2204,
      "ью": 2205,
      "ьмите": 2206,
      "яко": 2207,
      "тота": 2208,
      "нес": 2209,
      "нему": 2210,
      "нень": 2211,
      "нелюби": 2212,
      "несчастли": 2213,
      "неспособ": 2214,
      "некоторых": 2215,
      "необязательно": 2216,
      "неров": 2217,
      "небольшой": 2218,
      "нов": 2219,
      "ност": 2220,
      "ночи": 2221,
      "новые": 2222,
      "новую": 2223,
      "нам": 2224,
      "нач": 2225,
      "наче": 2226,
      "наме": 2227,
      "насто": 2228,
      "наши": 2229,
      "напи": 2230,
      "насы": 2231,
      "навер": 2232,
      "нации": 2233,
      "навя": 2234,
      "насту": 2235,
      "найти": 2236,
      "наших": 2237,
      "напле": 2238,
      "навли": 2239,
      "нили": 2240,
      "нивать": 2241,
      "ником": 2242,
      "нилось": 2243,
      "нирова": 2244,
      "ницей": 2245,
      "рано": 2246,
      "рами": 2247,
      "расти": 2248,
      "раба": 2249,
      "коло": 2250,
      "кому": 2251,
      "кость": 2252,
      "кону": 2253,
      "колько": 2254,
      "коиться": 2255,
      "пора": 2256,
      "поро": 2257,
      "похо": 2258,
      "попро": 2259,
      "пожи": 2260,
      "поки": 2261,
      "попа": 2262,
      "пойти": 2263,
      "полага": 2264,
      "попроси": 2265,
      "поговорить": 2266,
      "погру": 2267,
      "посвя": 2268,
      "попробовать": 2269,
      "поеха": 2270,
      "пошло": 2271,
      "рое": 2272,
      "рок": 2273,
      "росли": 2274,
      "родом": 2275,
      "вай": 2276,
      "вал": 2277,
      "вали": 2278,
      "ваше": 2279,
      "вался": 2280,
      "вались": 2281,
      "вайтесь": 2282,
      "вален": 2283,
      "ваюсь": 2284,
      "важнее": 2285,
      "вакан": 2286,
      "вов": 2287,
      "вод": 2288,
      "восемь": 2289,
      "возная": 2290,
      "рем": 2291,
      "рес": 2292,
      "рень": 2293,
      "ревья": 2294,
      "реоти": 2295,
      "лив": 2296,
      "лин": 2297,
      "ликто": 2298,
      "лицо": 2299,
      "гом": 2300,
      "гор": 2301,
      "теле": 2302,
      "теля": 2303,
      "теры": 2304,
      "телик": 2305,
      "кане": 2306,
      "какого": 2307,
      "какие": 2308,
      "какое": 2309,
      "качества": 2310,
      "какими": 2311,
      "секрет": 2312,
      "мого": 2313,
      "мота": 2314,
      "моло": 2315,
      "моча": 2316,
      "мости": 2317,
      "моей": 2318,
      "моему": 2319,
      "моих": 2320,
      "мологи": 2321,
      "можешь": 2322,
      "льны": 2323,
      "льнее": 2324,
      "рим": 2325,
      "рите": 2326,
      "рилин": 2327,
      "таза": 2328,
      "тают": 2329,
      "дай": 2330,
      "дая": 2331,
      "давай": 2332,
      "лами": 2333,
      "холо": 2334,
      "ходе": 2335,
      "лок": 2336,
      "лоси": 2337,
      "логов": 2338,
      "дово": 2339,
      "дове": 2340,
      "договори": 2341,
      "дохода": 2342,
      "бора": 2343,
      "болиз": 2344,
      "боюсь": 2345,
      "бороться": 2346,
      "енти": 2347,
      "зад": 2348,
      "забо": 2349,
      "запа": 2350,
      "защи": 2351,
      "закон": 2352,
      "зачем": 2353,
      "запросто": 2354,
      "захотят": 2355,
      "замуже": 2356,
      "заставля": 2357,
      "записа": 2358,
      "заработать": 2359,
      "заинтересо": 2360,
      "деревья": 2361,
      "мани": 2362,
      "маму": 2363,
      "мага": 2364,
      "мазо": 2365,
      "прось": 2366,
      "произ": 2367,
      "просы": 2368,
      "простране": 2369,
      "просну": 2370,
      "чей": 2371,
      "чении": 2372,
      "честве": 2373,
      "честно": 2374,
      "ческую": 2375,
      "вывать": 2376,
      "выби": 2377,
      "выходи": 2378,
      "вызы": 2379,
      "выходной": 2380,
      "вынуж": 2381,
      "выросли": 2382,
      "выбора": 2383,
      "жим": 2384,
      "жит": 2385,
      "живот": 2386,
      "ления": 2387,
      "лежит": 2388,
      "вем": 2389,
      "весь": 2390,
      "вещь": 2391,
      "жем": 2392,
      "жене": 2393,
      "жест": 2394,
      "жесть": 2395,
      "женой": 2396,
      "сии": 2397,
      "силы": 2398,
      "мум": 2399,
      "мужи": 2400,
      "мину": 2401,
      "обмен": 2402,
      "обнару": 2403,
      "тие": 2404,
      "тий": 2405,
      "тики": 2406,
      "типа": 2407,
      "тием": 2408,
      "вин": 2409,
      "виде": 2410,
      "вины": 2411,
      "види": 2412,
      "вильно": 2413,
      "виду": 2414,
      "видно": 2415,
      "вился": 2416,
      "вились": 2417,
      "виртуа": 2418,
      "дин": 2419,
      "дици": 2420,
      "диван": 2421,
      "дивиду": 2422,
      "этот": 2423,
      "любы": 2424,
      "отка": 2425,
      "отда": 2426,
      "отры": 2427,
      "отпра": 2428,
      "отпу": 2429,
      "отвер": 2430,
      "отличи": 2431,
      "откры": 2432,
      "отчая": 2433,
      "чину": 2434,
      "чился": 2435,
      "быстро": 2436,
      "рун": 2437,
      "руш": 2438,
      "руют": 2439,
      "чами": 2440,
      "чаще": 2441,
      "чаться": 2442,
      "прибе": 2443,
      "приня": 2444,
      "привет": 2445,
      "приспо": 2446,
      "прилага": 2447,
      "приводи": 2448,
      "придется": 2449,
      "прикоснове": 2450,
      "принци": 2451,
      "сопроти": 2452,
      "сасы": 2453,
      "сабли": 2454,
      "всеми": 2455,
      "всеобще": 2456,
      "мери": 2457,
      "менее": 2458,
      "стов": 2459,
      "стоки": 2460,
      "столом": 2461,
      "шел": 2462,
      "стали": 2463,
      "ставя": 2464,
      "ставить": 2465,
      "беско": 2466,
      "бежать": 2467,
      "ниях": 2468,
      "рых": 2469,
      "мые": 2470,
      "мысли": 2471,
      "мышля": 2472,
      "разные": 2473,
      "разоча": 2474,
      "размышля": 2475,
      "утро": 2476,
      "шит": 2477,
      "шить": 2478,
      "слишком": 2479,
      "которую": 2480,
      "изде": 2481,
      "изба": 2482,
      "своя": 2483,
      "своего": 2484,
      "онно": 2485,
      "онлай": 2486,
      "жного": 2487,
      "рабочее": 2488,
      "гать": 2489,
      "гает": 2490,
      "гают": 2491,
      "гармо": 2492,
      "гаран": 2493,
      "куча": 2494,
      "курс": 2495,
      "пает": 2496,
      "паха": 2497,
      "палку": 2498,
      "парень": 2499,
      "знако": 2500,
      "знаком": 2501,
      "знаем": 2502,
      "щим": 2503,
      "щики": 2504,
      "льности": 2505,
      "нуться": 2506,
      "дую": 2507,
      "души": 2508,
      "душа": 2509,
      "мены": 2510,
      "мень": 2511,
      "менты": 2512,
      "менными": 2513,
      "тупо": 2514,
      "туру": 2515,
      "жай": 2516,
      "жале": 2517,
      "жается": 2518,
      "Под": 2519,
      "Пока": 2520,
      "компле": 2521,
      "комфорт": 2522,
      "рять": 2523,
      "ряды": 2524,
      "активно": 2525,
      "актеры": 2526,
      "чуть": 2527,
      "которыми": 2528,
      "страция": 2529,
      "страдания": 2530,
      "буква": 2531,
      "друга": 2532,
      "тывает": 2533,
      "делаете": 2534,
      "шан": 2535,
      "шат": 2536,
      "пил": 2537,
      "проблему": 2538,
      "проблемой": 2539,
      "самообма": 2540,
      "няя": 2541,
      "няют": 2542,
      "няются": 2543,
      "правда": 2544,
      "Норма": 2545,
      "человечески": 2546,
      "человеческая": 2547,
      "енность": 2548,
      "следовать": 2549,
      "хика": 2550,
      "вного": 2551,
      "общем": 2552,
      "общении": 2553,
      "суици": 2554,
      "супру": 2555,
      "дном": 2556,
      "Некоторые": 2557,
      "Невро": 2558,
      "сказывать": 2559,
      "цель": 2560,
      "любил": 2561,
      "любить": 2562,
      "любите": 2563,
      "любимая": 2564,
      "переходит": 2565,
      "перегнуть": 2566,
      "перемены": 2567,
      "сына": 2568,
      "сыну": 2569,
      "ствием": 2570,
      "подмена": 2571,
      "интер": 2572,
      "институт": 2573,
      "информа": 2574,
      "индивиду": 2575,
      "мысль": 2576,
      "пусто": 2577,
      "путают": 2578,
      "тяго": 2579,
      "расста": 2580,
      "распла": 2581,
      "распростране": 2582,
      "рассказывать": 2583,
      "перспе": 2584,
      "верю": 2585,
      "верно": 2586,
      "собы": 2587,
      "возмож": 2588,
      "возника": 2589,
      "возвра": 2590,
      "возьмите": 2591,
      "примеро": 2592,
      "своими": 2593,
      "работаю": 2594,
      "работают": 2595,
      "случи": 2596,
      "Наде": 2597,
      "Начать": 2598,
      "Насколько": 2599,
      "стесня": 2600,
      "стереоти": 2601,
      "ренность": 2602,
      "меняйте": 2603,
      "хая": 2604,
      "реале": 2605,
      "реальных": 2606,
      "реальной": 2607,
      "реализация": 2608,
      "долга": 2609,
      "должен": 2610,
      "плака": 2611,
      "плавно": 2612,
      "платье": 2613,
      "пластика": 2614,
      "сное": 2615,
      "ющих": 2616,
      "насколько": 2617,
      "эмоций": 2618,
      "строи": 2619,
      "тельные": 2620,
      "тельство": 2621,
      "действовать": 2622,
      "говорит": 2623,
      "пьете": 2624,
      "получные": 2625,
      "терпит": 2626,
      "вляются": 2627,
      "любое": 2628,
      "любом": 2629,
      "Конечно": 2630,
      "рмами": 2631,
      "щал": 2632,
      "щая": 2633,
      "щаясь": 2634,
      "невроза": 2635,
      "вопросов": 2636,
      "читать": 2637,
      "безусловно": 2638,
      "Пробле": 2639,
      "драться": 2640,
      "лый": 2641,
      "нравиться": 2642,
      "нравлю": 2643,
      "уверяется": 2644,
      "нервные": 2645,
      "нервов": 2646,
      "счастливой": 2647,
      "сложнее": 2648,
      "фоне": 2649,
      "ствующие": 2650,
      "помощ": 2651,
      "родителя": 2652,
      "кругом": 2653,
      "считаю": 2654,
      "считаете": 2655,
      "традици": 2656,
      "ситуацию": 2657,
      "ситуацией": 2658,
      "брать": 2659,
      "браке": 2660,
      "фира": 2661,
      "фици": 2662,
      "чься": 2663,
      "этих": 2664,
      "радост": 2665,
      "радоваться": 2666,
      "каждо": 2667,
      "каждой": 2668,
      "обрат": 2669,
      "обращаются": 2670,
      "обратиться": 2671,
      "конфликто": 2672,
      "тревожно": 2673,
      "невротика": 2674,
      "лучшее": 2675,
      "гене": 2676,
      "кризи": 2677,
      "выйти": 2678,
      "циация": 2679,
      "предста": 2680,
      "представля": 2681,
      "способност": 2682,
      "удовольствия": 2683,
      "удовольствием": 2684,
      "вления": 2685,
      "звонит": 2686,
      "звонят": 2687,
      "клады": 2688,
      "учить": 2689,
      "важное": 2690,
      "делом": 2691,
      "происходят": 2692,
      "которое": 2693,
      "котором": 2694,
      "нуюсь": 2695,
      "чувством": 2696,
      "чувствовать": 2697,
      "спрашиваю": 2698,
      "уверенность": 2699,
      "всякий": 2700,
      "одной": 2701,
      "одному": 2702,
      "пят": 2703,
      "тное": 2704,
      "личного": 2705,
      "личности": 2706,
      "дорого": 2707,
      "детьми": 2708,
      "делеева": 2709,
      "советчи": 2710,
      "разумно": 2711,
      "большее": 2712,
      "конфликты": 2713,
      "Вер": 2714,
      "Ничего": 2715,
      "Никто": 2716,
      "Отсю": 2717,
      "взяться": 2718,
      "вместе": 2719,
      "прямой": 2720,
      "недоволь": 2721,
      "никакой": 2722,
      "никакого": 2723,
      "поступле": 2724,
      "поступил": 2725,
      "болез": 2726,
      "самооценка": 2727,
      "самооценку": 2728,
      "психологическая": 2729,
      "зависимости": 2730,
      "Кажды": 2731,
      "Мой": 2732,
      "Может": 2733,
      "кресла": 2734,
      "особо": 2735,
      "однажды": 2736,
      "умел": 2737,
      "умеют": 2738,
      "начинают": 2739,
      "повод": 2740,
      "поводу": 2741,
      "поводы": 2742,
      "положитель": 2743,
      "положении": 2744,
      "положного": 2745,
      "волнуюсь": 2746,
      "держаться": 2747,
      "вырабаты": 2748,
      "выражения": 2749,
      "мечется": 2750,
      "мечты": 2751,
      "правил": 2752,
      "правило": 2753,
      "правильно": 2754,
      "армии": 2755,
      "аркане": 2756,
      "многих": 2757,
      "остается": 2758,
      "определен": 2759,
      "смотре": 2760,
      "начало": 2761,
      "показа": 2762,
      "полюбит": 2763,
      "полюбить": 2764,
      "депрессии": 2765,
      "просит": 2766,
      "продолжа": 2767,
      "продолжать": 2768,
      "продолжает": 2769,
      "через": 2770,
      "выбрали": 2771,
      "состояние": 2772,
      "раздражите": 2773,
      "хороший": 2774,
      "алкоголи": 2775,
      "второе": 2776,
      "ешься": 2777,
      "ешьте": 2778,
      "зов": 2779,
      "зрения": 2780,
      "одобрения": 2781,
      "спасти": 2782,
      "спасибо": 2783,
      "труд": 2784,
      "трудом": 2785,
      "удалось": 2786,
      "подоб": 2787,
      "поведе": 2788,
      "поведения": 2789,
      "ровали": 2790,
      "рованы": 2791,
      "развито": 2792,
      "чувствует": 2793,
      "чувствуют": 2794,
      "чувствуете": 2795,
      "получает": 2796,
      "получают": 2797,
      "получается": 2798,
      "женщинам": 2799,
      "осознать": 2800,
      "Разве": 2801,
      "Разви": 2802,
      "реализовать": 2803,
      "реализовывать": 2804,
      "вкус": 2805,
      "вкусно": 2806,
      "крыши": 2807,
      "связи": 2808,
      "слышит": 2809,
      "уважает": 2810,
      "усилия": 2811,
      "нецкий": 2812,
      "низкой": 2813,
      "низменными": 2814,
      "рациональных": 2815,
      "позже": 2816,
      "поймете": 2817,
      "результат": 2818,
      "достиг": 2819,
      "выяснять": 2820,
      "выяснилось": 2821,
      "лезете": 2822,
      "мужей": 2823,
      "обида": 2824,
      "самые": 2825,
      "самый": 2826,
      "самых": 2827,
      "переживаниях": 2828,
      "возраста": 2829,
      "эмоциям": 2830,
      "эмоциями": 2831,
      "получие": 2832,
      "нервничать": 2833,
      "классе": 2834,
      "класса": 2835,
      "наркологи": 2836,
      "нарколога": 2837,
      "серьезно": 2838,
      "серьезные": 2839,
      "Предлага": 2840,
      "агре": 2841,
      "дворе": 2842,
      "скло": 2843,
      "ссоры": 2844,
      "несчастные": 2845,
      "несчастных": 2846,
      "называется": 2847,
      "называемая": 2848,
      "попытаться": 2849,
      "позволяют": 2850,
      "попытка": 2851,
      "сериал": 2852,
      "таких": 2853,
      "заслужить": 2854,
      "заслуживать": 2855,
      "завтрак": 2856,
      "массу": 2857,
      "обесце": 2858,
      "изменить": 2859,
      "партнер": 2860,
      "партнера": 2861,
      "суждения": 2862,
      "говорю": 2863,
      "цепляет": 2864,
      "перестают": 2865,
      "слушайте": 2866,
      "стервозная": 2867,
      "ющимся": 2868,
      "формиру": 2869,
      "одиночества": 2870,
      "одиночестве": 2871,
      "образование": 2872,
      "бросают": 2873,
      "волнение": 2874,
      "волнений": 2875,
      "настоящей": 2876,
      "настоящему": 2877,
      "благополучные": 2878,
      "благополучие": 2879,
      "ощутить": 2880,
      "специалистов": 2881,
      "преодолевает": 2882,
      "Вам": 2883,
      "Другой": 2884,
      "Между": 2885,
      "Меня": 2886,
      "Менделеева": 2887,
      "Правильно": 2888,
      "Хотите": 2889,
      "ежеминут": 2890,
      "ежедне": 2891,
      "офис": 2892,
      "офталь": 2893,
      "опас": 2894,
      "оказывается": 2895,
      "оказываются": 2896,
      "очередь": 2897,
      "спут": 2898,
      "уровне": 2899,
      "учатся": 2900,
      "успех": 2901,
      "цов": 2902,
      "экза": 2903,
      "торгу": 2904,
      "невеста": 2905,
      "непреры": 2906,
      "потребности": 2907,
      "рождения": 2908,
      "сексу": 2909,
      "семейные": 2910,
      "лайков": 2911,
      "проигрывает": 2912,
      "велит": 2913,
      "признает": 2914,
      "лямку": 2915,
      "паралле": 2916,
      "значения": 2917,
      "значение": 2918,
      "компьютер": 2919,
      "комбикормами": 2920,
      "прекрасный": 2921,
      "дружбе": 2922,
      "целой": 2923,
      "любимым": 2924,
      "любимыми": 2925,
      "подростка": 2926,
      "тяжело": 2927,
      "хорошее": 2928,
      "собственные": 2929,
      "терпеть": 2930,
      "словом": 2931,
      "последствия": 2932,
      "бросила": 2933,
      "борьбы": 2934,
      "объективными": 2935,
      "психологических": 2936,
      "существования": 2937,
      "алкоголизма": 2938,
      "хватает": 2939,
      "эффективно": 2940,
      "нервничаете": 2941,
      "Женщины": 2942,
      "физическую": 2943,
      "российских": 2944,
      "контролировать": 2945,
      "контролирует": 2946,
      "100": 2947,
      "Будешь": 2948,
      "Жизнь": 2949,
      "Желания": 2950,
      "Либо": 2951,
      "Скорее": 2952,
      "жье": 2953,
      "претен": 2954,
      "унитаза": 2955,
      "нестабильность": 2956,
      "настроение": 2957,
      "структи": 2958,
      "покуп": 2959,
      "вашим": 2960,
      "рефлекси": 2961,
      "момент": 2962,
      "лагере": 2963,
      "ложил": 2964,
      "болта": 2965,
      "боятся": 2966,
      "заменить": 2967,
      "максима": 2968,
      "маленький": 2969,
      "мальчиков": 2970,
      "провоци": 2971,
      "професси": 2972,
      "ческое": 2973,
      "выходные": 2974,
      "миром": 2975,
      "обрести": 2976,
      "общаться": 2977,
      "диагности": 2978,
      "отцом": 2979,
      "отсутствие": 2980,
      "отдохнуть": 2981,
      "сообщества": 2982,
      "мешает": 2983,
      "жизненно": 2984,
      "разбираться": 2985,
      "известно": 2986,
      "парня": 2987,
      "другую": 2988,
      "практики": 2989,
      "контакт": 2990,
      "путеше": 2991,
      "рассуждает": 2992,
      "временем": 2993,
      "реагирует": 2994,
      "наслажда": 2995,
      "справляясь": 2996,
      "трагедия": 2997,
      "каждый": 2998,
      "депрессу": 2999,
      "противоположного": 3000,
      "Тибет": 3001,
      "встретит": 3002,
      "друзьями": 3003,
      "граждане": 3004,
      "метаболиз": 3005,
      "измениться": 3006,
      "ХОЧЕТ": 3007,
      "Человек": 3008,
      "органи": 3009,
      "симптомом": 3010,
      "руководителя": 3011,
      "мотиваций": 3012,
      "талант": 3013,
      "заканчиваются": 3014,
      "обстоятельств": 3015,
      "Вуди": 3016,
      "Деньги": 3017,
      "Египет": 3018,
      "Жванецкий": 3019,
      "Мэрилин": 3020,
      "Прямо": 3021,
      "Трево": 3022,
      "аварии": 3023,
      "ассоциация": 3024,
      "грези": 3025,
      "дверь": 3026,
      "мните": 3027,
      "ожидания": 3028,
      "опыту": 3029,
      "окончила": 3030,
      "писы": 3031,
      "сформули": 3032,
      "ульти": 3033,
      "учебу": 3034,
      "умуд": 3035,
      "угадать": 3036,
      "успокоиться": 3037,
      "ухаживать": 3038,
      "установки": 3039,
      "якобы": 3040,
      "неспособность": 3041,
      "насыщенно": 3042,
      "наверное": 3043,
      "наплевать": 3044,
      "рабас": 3045,
      "порочными": 3046,
      "похожесть": 3047,
      "секретар": 3048,
      "молоком": 3049,
      "лосипе": 3050,
      "записать": 3051,
      "произошло": 3052,
      "выбирая": 3053,
      "выходите": 3054,
      "вызывает": 3055,
      "виртуально": 3056,
      "приспосабли": 3057,
      "приводит": 3058,
      "принципе": 3059,
      "всеобщего": 3060,
      "ставят": 3061,
      "бесконечно": 3062,
      "разочаро": 3063,
      "гармони": 3064,
      "гаранти": 3065,
      "комплексы": 3066,
      "буквально": 3067,
      "самообман": 3068,
      "индивидуа": 3069,
      "распространенная": 3070,
      "перспекти": 3071,
      "нравлюсь": 3072,
      "традиционно": 3073,
      "Отсюда": 3074,
      "поступления": 3075,
      "Каждый": 3076,
      "наркологами": 3077,
      "обесценивать": 3078,
      "ежедневно": 3079,
      "офтальмологи": 3080,
      "\"»": 3081,
      "(«": 3082,
      ")»,": 3083,
      "24": 3084,
      "48": 3085,
      "60": 3086,
      "75": 3087,
      "86": 3088,
      "?!": 3089,
      "?)": 3090,
      "Ap": 3091,
      "II": 3092,
      "In": 3093,
      "Sk": 3094,
      "Wh": 3095,
      "XII": 3096,
      "ag": 3097,
      "al": 3098,
      "am": 3099,
      "at": 3100,
      "cl": 3101,
      "in": 3102,
      "iv": 3103,
      "pe": 3104,
      "ram": 3105,
      "st": 3106,
      "sAp": 3107,
      "siv": 3108,
      "usiv": 3109,
      "ype": 3110,
      "»;": 3111,
      "»…": 3112,
      "éви": 3113,
      "Аф": 3114,
      "Ана": 3115,
      "Ази": 3116,
      "Алле": 3117,
      "Ба": 3118,
      "Бе": 3119,
      "Бра": 3120,
      "Бро": 3121,
      "Бле": 3122,
      "Без": 3123,
      "ВИ": 3124,
      "ВО": 3125,
      "ВУ": 3126,
      "ВЫ": 3127,
      "Ви": 3128,
      "Вь": 3129,
      "Вне": 3130,
      "Внима": 3131,
      "Вклю": 3132,
      "Вполне": 3133,
      "ВНА": 3134,
      "ВНЕ": 3135,
      "Впрочем": 3136,
      "ВРЕ": 3137,
      "ГЛ": 3138,
      "ГО": 3139,
      "Гри": 3140,
      "Гла": 3141,
      "Где": 3142,
      "ГТО": 3143,
      "ДА": 3144,
      "ДО": 3145,
      "ДЯ": 3146,
      "Дж": 3147,
      "Два": 3148,
      "Дже": 3149,
      "Дис": 3150,
      "Джен": 3151,
      "Дума": 3152,
      "ЕК": 3153,
      "ЕР": 3154,
      "Ев": 3155,
      "Ее": 3156,
      "Ей": 3157,
      "Его": 3158,
      "Ерун": 3159,
      "Же": 3160,
      "Жду": 3161,
      "Жить": 3162,
      "Зна": 3163,
      "Зем": 3164,
      "Зиг": 3165,
      "Здоро": 3166,
      "ЗАВ": 3167,
      "ЗЕР": 3168,
      "ИЛ": 3169,
      "ИС": 3170,
      "ИТ": 3171,
      "Идите": 3172,
      "Иной": 3173,
      "ИСе": 3174,
      "Идем": 3175,
      "Иначе": 3176,
      "Истоки": 3177,
      "ИВНА": 3178,
      "Йо": 3179,
      "КО": 3180,
      "КР": 3181,
      "Кри": 3182,
      "Кру": 3183,
      "Кон": 3184,
      "Кид": 3185,
      "Книга": 3186,
      "Культи": 3187,
      "ЛО": 3188,
      "Ла": 3189,
      "Ле": 3190,
      "Лень": 3191,
      "Ленно": 3192,
      "Лан": 3193,
      "Луч": 3194,
      "МЕ": 3195,
      "МЯ": 3196,
      "Ма": 3197,
      "Мно": 3198,
      "Мон": 3199,
      "Мак": 3200,
      "Много": 3201,
      "Муж": 3202,
      "Мар": 3203,
      "МСЯ": 3204,
      "МИС": 3205,
      "НЫ": 3206,
      "Нра": 3207,
      "ОЙ": 3208,
      "Оч": 3209,
      "Ори": 3210,
      "Оста": 3211,
      "Оби": 3212,
      "Одно": 3213,
      "Обра": 3214,
      "Один": 3215,
      "ОМЕ": 3216,
      "Пи": 3217,
      "Пло": 3218,
      "ПОЛ": 3219,
      "Паль": 3220,
      "РА": 3221,
      "Ро": 3222,
      "РОЛ": 3223,
      "Рим": 3224,
      "Руко": 3225,
      "СТ": 3226,
      "Сф": 3227,
      "Сто": 3228,
      "Сва": 3229,
      "Сво": 3230,
      "Смо": 3231,
      "Ста": 3232,
      "Сле": 3233,
      "Соб": 3234,
      "Сча": 3235,
      "Спа": 3236,
      "Сдела": 3237,
      "Спи": 3238,
      "Сей": 3239,
      "Сделать": 3240,
      "Смыс": 3241,
      "Счита": 3242,
      "Стра": 3243,
      "Суще": 3244,
      "Смена": 3245,
      "Сначала": 3246,
      "Ту": 3247,
      "Тэ": 3248,
      "Тво": 3249,
      "Тот": 3250,
      "ТОЛ": 3251,
      "Тор": 3252,
      "ТВУ": 3253,
      "ТИВНА": 3254,
      "ТРА": 3255,
      "УЧ": 3256,
      "Уве": 3257,
      "УВС": 3258,
      "Учился": 3259,
      "УВИ": 3260,
      "Фран": 3261,
      "Хиз": 3262,
      "Хар": 3263,
      "Хью": 3264,
      "Хвален": 3265,
      "Цела": 3266,
      "Ча": 3267,
      "Чу": 3268,
      "Чего": 3269,
      "ЧТО": 3270,
      "ЧЕГ": 3271,
      "ЧУВС": 3272,
      "Шесть": 3273,
      "Шан": 3274,
      "ШНО": 3275,
      "ЪЕК": 3276,
      "ЬНО": 3277,
      "ЬКО": 3278,
      "Эго": 3279,
      "Эхо": 3280,
      "ЭТО": 3281,
      "ЯДЯ": 3282,
      "аб": 3283,
      "ам": 3284,
      "ау": 3285,
      "ах": 3286,
      "ане": 3287,
      "апо": 3288,
      "ака": 3289,
      "ало": 3290,
      "аде": 3291,
      "апри": 3292,
      "аду": 3293,
      "ачь": 3294,
      "анар": 3295,
      "авто": 3296,
      "амери": 3297,
      "бъ": 3298,
      "блю": 3299,
      "бность": 3300,
      "бдите": 3301,
      "бской": 3302,
      "бщения": 3303,
      "бляет": 3304,
      "вс": 3305,
      "вла": 3306,
      "вдо": 3307,
      "вру": 3308,
      "вры": 3309,
      "вги": 3310,
      "вну": 3311,
      "впи": 3312,
      "впра": 3313,
      "вслу": 3314,
      "впло": 3315,
      "вско": 3316,
      "вца": 3317,
      "вдать": 3318,
      "вклю": 3319,
      "влен": 3320,
      "вполо": 3321,
      "вслед": 3322,
      "вшей": 3323,
      "вших": 3324,
      "вдво": 3325,
      "всла": 3326,
      "вцеп": 3327,
      "вперед": 3328,
      "всю": 3329,
      "ввин": 3330,
      "гне": 3331,
      "гли": 3332,
      "гле": 3333,
      "гви": 3334,
      "гтя": 3335,
      "гнет": 3336,
      "гневе": 3337,
      "грома": 3338,
      "др": 3339,
      "дро": 3340,
      "дка": 3341,
      "дла": 3342,
      "ден": 3343,
      "две": 3344,
      "дви": 3345,
      "дство": 3346,
      "дный": 3347,
      "дству": 3348,
      "дленно": 3349,
      "дшая": 3350,
      "дрем": 3351,
      "денность": 3352,
      "дéви": 3353,
      "еп": 3354,
      "еч": 3355,
      "ею": 3356,
      "ель": 3357,
      "еду": 3358,
      "едете": 3359,
      "екта": 3360,
      "едешь": 3361,
      "едва": 3362,
      "ерем": 3363,
      "един": 3364,
      "ерун": 3365,
      "жку": 3366,
      "ждет": 3367,
      "жным": 3368,
      "ждает": 3369,
      "жкие": 3370,
      "жную": 3371,
      "жуж": 3372,
      "жней": 3373,
      "ждать": 3374,
      "ждут": 3375,
      "жский": 3376,
      "жними": 3377,
      "жденность": 3378,
      "зм": 3379,
      "зю": 3380,
      "зет": 3381,
      "зка": 3382,
      "зде": 3383,
      "зона": 3384,
      "зин": 3385,
      "зможно": 3386,
      "звание": 3387,
      "здать": 3388,
      "зом": 3389,
      "злом": 3390,
      "зрить": 3391,
      "здают": 3392,
      "званием": 3393,
      "зер": 3394,
      "зель": 3395,
      "ил": 3396,
      "ино": 3397,
      "ини": 3398,
      "ира": 3399,
      "имо": 3400,
      "исти": 3401,
      "ивать": 3402,
      "ищи": 3403,
      "имен": 3404,
      "идет": 3405,
      "ивает": 3406,
      "ища": 3407,
      "инер": 3408,
      "иной": 3409,
      "иваться": 3410,
      "иную": 3411,
      "иваются": 3412,
      "ицию": 3413,
      "италь": 3414,
      "ируя": 3415,
      "истом": 3416,
      "иначе": 3417,
      "истоки": 3418,
      "йв": 3419,
      "йли": 3420,
      "йны": 3421,
      "йчи": 3422,
      "йме": 3423,
      "йные": 3424,
      "йкой": 3425,
      "йства": 3426,
      "йца": 3427,
      "йной": 3428,
      "йней": 3429,
      "йтам": 3430,
      "кл": 3431,
      "кс": 3432,
      "кро": 3433,
      "кли": 3434,
      "кдо": 3435,
      "кма": 3436,
      "кши": 3437,
      "кну": 3438,
      "клет": 3439,
      "клен": 3440,
      "ктро": 3441,
      "кроме": 3442,
      "крю": 3443,
      "лда": 3444,
      "лту": 3445,
      "лке": 3446,
      "лнить": 3447,
      "ллом": 3448,
      "лфак": 3449,
      "мся": 3450,
      "мши": 3451,
      "мце": 3452,
      "мной": 3453,
      "мнить": 3454,
      "мню": 3455,
      "мления": 3456,
      "мчаться": 3457,
      "нд": 3458,
      "нчи": 3459,
      "нше": 3460,
      "нку": 3461,
      "нты": 3462,
      "нного": 3463,
      "нных": 3464,
      "нность": 3465,
      "нства": 3466,
      "нной": 3467,
      "нге": 3468,
      "нстве": 3469,
      "нник": 3470,
      "нница": 3471,
      "нкт": 3472,
      "нстрация": 3473,
      "оз": 3474,
      "ой": 3475,
      "оп": 3476,
      "ора": 3477,
      "ост": 3478,
      "оте": 3479,
      "охо": 3480,
      "оде": 3481,
      "ому": 3482,
      "опе": 3483,
      "опра": 3484,
      "оце": 3485,
      "опу": 3486,
      "опла": 3487,
      "онер": 3488,
      "опол": 3489,
      "ологи": 3490,
      "осторо": 3491,
      "опоз": 3492,
      "описа": 3493,
      "острой": 3494,
      "остер": 3495,
      "осва": 3496,
      "огро": 3497,
      "огор": 3498,
      "осуждения": 3499,
      "пр": 3500,
      "псе": 3501,
      "пен": 3502,
      "пку": 3503,
      "пные": 3504,
      "пили": 3505,
      "пень": 3506,
      "пенно": 3507,
      "псы": 3508,
      "пков": 3509,
      "рм": 3510,
      "рь": 3511,
      "рла": 3512,
      "рве": 3513,
      "рти": 3514,
      "рки": 3515,
      "рса": 3516,
      "рме": 3517,
      "рмы": 3518,
      "рга": 3519,
      "рные": 3520,
      "рным": 3521,
      "ркие": 3522,
      "рстве": 3523,
      "рвая": 3524,
      "рших": 3525,
      "рном": 3526,
      "рцию": 3527,
      "рвные": 3528,
      "рдия": 3529,
      "рсии": 3530,
      "рнуться": 3531,
      "сна": 3532,
      "схо": 3533,
      "сми": 3534,
      "сви": 3535,
      "счи": 3536,
      "сса": 3537,
      "смы": 3538,
      "сете": 3539,
      "сные": 3540,
      "слове": 3541,
      "сство": 3542,
      "сбой": 3543,
      "свер": 3544,
      "сможет": 3545,
      "ского": 3546,
      "спло": 3547,
      "смог": 3548,
      "сбор": 3549,
      "смогут": 3550,
      "сника": 3551,
      "спреде": 3552,
      "сква": 3553,
      "счет": 3554,
      "сделает": 3555,
      "схе": 3556,
      "ссказыва": 3557,
      "скреди": 3558,
      "спят": 3559,
      "спровоци": 3560,
      "тна": 3561,
      "тте": 3562,
      "тка": 3563,
      "тле": 3564,
      "тки": 3565,
      "тры": 3566,
      "тные": 3567,
      "тря": 3568,
      "тлен": 3569,
      "тчер": 3570,
      "тник": 3571,
      "тками": 3572,
      "ух": 3573,
      "уго": 3574,
      "уло": 3575,
      "уза": 3576,
      "уле": 3577,
      "усто": 3578,
      "уется": 3579,
      "уете": 3580,
      "уши": 3581,
      "упа": 3582,
      "упра": 3583,
      "ухи": 3584,
      "усу": 3585,
      "упере": 3586,
      "уволь": 3587,
      "улуч": 3588,
      "упря": 3589,
      "уйти": 3590,
      "умира": 3591,
      "уров": 3592,
      "умоз": 3593,
      "уходят": 3594,
      "ухода": 3595,
      "узнать": 3596,
      "устрое": 3597,
      "упать": 3598,
      "угро": 3599,
      "узда": 3600,
      "ушел": 3601,
      "удержаться": 3602,
      "фа": 3603,
      "фру": 3604,
      "фля": 3605,
      "фан": 3606,
      "фами": 3607,
      "фана": 3608,
      "хне": 3609,
      "хру": 3610,
      "хиз": 3611,
      "худо": 3612,
      "хности": 3613,
      "цу": 3614,
      "ценно": 3615,
      "цлагере": 3616,
      "чта": 3617,
      "чла": 3618,
      "чут": 3619,
      "чным": 3620,
      "чную": 3621,
      "чены": 3622,
      "чок": 3623,
      "шно": 3624,
      "шку": 3625,
      "шные": 3626,
      "шпи": 3627,
      "шень": 3628,
      "шность": 3629,
      "шлось": 3630,
      "шное": 3631,
      "щные": 3632,
      "щрения": 3633,
      "щупать": 3634,
      "ъяс": 3635,
      "эко": 3636,
      "эго": 3637,
      "эле": 3638,
      "эпи": 3639,
      "энер": 3640,
      "экра": 3641,
      "эфира": 3642,
      "юри": 3643,
      "юля": 3644,
      "юности": 3645,
      "ющая": 3646,
      "як": 3647,
      "ять": 3648,
      "япо": 3649,
      "яви": 3650,
      "язы": 3651,
      "ятельно": 3652,
      "яющие": 3653,
      "явная": 3654,
      "явление": 3655,
      "янский": 3656,
      "ятий": 3657,
      "ясное": 3658,
      "явления": 3659,
      "яйца": 3660,
      "яркие": 3661,
      "ятные": 3662,
      "“?»": 3663,
      "…»": 3664,
      "…\",": 3665,
      "…»)": 3666,
      "…\"»": 3667,
      "тое": 3668,
      "тони": 3669,
      "тори": 3670,
      "тода": 3671,
      "торы": 3672,
      "топи": 3673,
      "тологи": 3674,
      "товари": 3675,
      "тоном": 3676,
      "тогра": 3677,
      "точный": 3678,
      "томии": 3679,
      "тонации": 3680,
      "тошно": 3681,
      "нена": 3682,
      "нета": 3683,
      "небо": 3684,
      "неза": 3685,
      "непро": 3686,
      "небе": 3687,
      "неры": 3688,
      "несли": 3689,
      "неиз": 3690,
      "нету": 3691,
      "неком": 3692,
      "некогда": 3693,
      "нешь": 3694,
      "непод": 3695,
      "нений": 3696,
      "непонима": 3697,
      "неспра": 3698,
      "нелюбовь": 3699,
      "несет": 3700,
      "некий": 3701,
      "нением": 3702,
      "независи": 3703,
      "ненорма": 3704,
      "непривы": 3705,
      "нецию": 3706,
      "несколько": 3707,
      "нереализо": 3708,
      "нетесь": 3709,
      "несут": 3710,
      "непола": 3711,
      "ненные": 3712,
      "нешу": 3713,
      "недавно": 3714,
      "невысо": 3715,
      "несвой": 3716,
      "небольшая": 3717,
      "неуверенности": 3718,
      "невоспита": 3719,
      "ненный": 3720,
      "неуют": 3721,
      "нерабочее": 3722,
      "невозмож": 3723,
      "неуверенность": 3724,
      "неразвито": 3725,
      "несерьезно": 3726,
      "неблагополучие": 3727,
      "непохожесть": 3728,
      "нечут": 3729,
      "тьте": 3730,
      "ног": 3731,
      "норо": 3732,
      "нори": 3733,
      "ному": 3734,
      "номи": 3735,
      "носа": 3736,
      "ноги": 3737,
      "нога": 3738,
      "носу": 3739,
      "ночь": 3740,
      "новаться": 3741,
      "нологи": 3742,
      "носили": 3743,
      "новых": 3744,
      "нового": 3745,
      "носят": 3746,
      "новидно": 3747,
      "нозов": 3748,
      "нормы": 3749,
      "напо": 3750,
      "насе": 3751,
      "нада": 3752,
      "нала": 3753,
      "напро": 3754,
      "навы": 3755,
      "наве": 3756,
      "наже": 3757,
      "наси": 3758,
      "наста": 3759,
      "напра": 3760,
      "наем": 3761,
      "находит": 3762,
      "напосле": 3763,
      "намного": 3764,
      "нажив": 3765,
      "национа": 3766,
      "нанять": 3767,
      "насили": 3768,
      "наслед": 3769,
      "нашей": 3770,
      "наполне": 3771,
      "назо": 3772,
      "наход": 3773,
      "набира": 3774,
      "нагру": 3775,
      "написа": 3776,
      "научиться": 3777,
      "наплю": 3778,
      "надавить": 3779,
      "напит": 3780,
      "нашла": 3781,
      "нараста": 3782,
      "напротив": 3783,
      "навстре": 3784,
      "назад": 3785,
      "наряды": 3786,
      "названием": 3787,
      "нающая": 3788,
      "нина": 3789,
      "нико": 3790,
      "ничто": 3791,
      "нила": 3792,
      "ниже": 3793,
      "нику": 3794,
      "нищи": 3795,
      "никто": 3796,
      "никого": 3797,
      "нике": 3798,
      "нифе": 3799,
      "нигде": 3800,
      "нистер": 3801,
      "нитор": 3802,
      "нимум": 3803,
      "рах": 3804,
      "ране": 3805,
      "раст": 3806,
      "рако": 3807,
      "раци": 3808,
      "раду": 3809,
      "раты": 3810,
      "раются": 3811,
      "рации": 3812,
      "равни": 3813,
      "ральные": 3814,
      "ражение": 3815,
      "раживает": 3816,
      "рамазо": 3817,
      "рабской": 3818,
      "раввин": 3819,
      "ета": 3820,
      "етами": 3821,
      "етрут": 3822,
      "етнаме": 3823,
      "стли": 3824,
      "стри": 3825,
      "стут": 3826,
      "ствый": 3827,
      "стях": 3828,
      "стном": 3829,
      "стников": 3830,
      "стряются": 3831,
      "стюля": 3832,
      "стяк": 3833,
      "кова": 3834,
      "коль": 3835,
      "колю": 3836,
      "кости": 3837,
      "комен": 3838,
      "кологи": 3839,
      "копить": 3840,
      "корот": 3841,
      "колле": 3842,
      "косв": 3843,
      "козлом": 3844,
      "котле": 3845,
      "поре": 3846,
      "пого": 3847,
      "посе": 3848,
      "поза": 3849,
      "повы": 3850,
      "побы": 3851,
      "посо": 3852,
      "поса": 3853,
      "поме": 3854,
      "побе": 3855,
      "поря": 3856,
      "покой": 3857,
      "попу": 3858,
      "потя": 3859,
      "повер": 3860,
      "попы": 3861,
      "посте": 3862,
      "постро": 3863,
      "подума": 3864,
      "погла": 3865,
      "порт": 3866,
      "порадо": 3867,
      "покла": 3868,
      "посовет": 3869,
      "поиска": 3870,
      "покое": 3871,
      "понача": 3872,
      "повто": 3873,
      "поощ": 3874,
      "побои": 3875,
      "помира": 3876,
      "посты": 3877,
      "потери": 3878,
      "попола": 3879,
      "постара": 3880,
      "поодино": 3881,
      "почка": 3882,
      "повзро": 3883,
      "попросить": 3884,
      "посреди": 3885,
      "похуже": 3886,
      "повыше": 3887,
      "постить": 3888,
      "пострадать": 3889,
      "подругу": 3890,
      "поинтересо": 3891,
      "постарайтесь": 3892,
      "поиграть": 3893,
      "поисте": 3894,
      "побороться": 3895,
      "поотры": 3896,
      "поставить": 3897,
      "поразмышля": 3898,
      "познако": 3899,
      "помень": 3900,
      "понервничать": 3901,
      "потерпеть": 3902,
      "пообщаться": 3903,
      "помню": 3904,
      "попку": 3905,
      "потря": 3906,
      "пощупать": 3907,
      "рой": 3908,
      "рост": 3909,
      "роли": 3910,
      "рота": 3911,
      "роше": 3912,
      "рожно": 3913,
      "роду": 3914,
      "роды": 3915,
      "роско": 3916,
      "ротра": 3917,
      "роким": 3918,
      "рожать": 3919,
      "рогие": 3920,
      "ролл": 3921,
      "ростом": 3922,
      "рощенных": 3923,
      "ротное": 3924,
      "роятные": 3925,
      "ротони": 3926,
      "ване": 3927,
      "вала": 3928,
      "вало": 3929,
      "ваны": 3930,
      "ваем": 3931,
      "валось": 3932,
      "ваясь": 3933,
      "ваешь": 3934,
      "вающие": 3935,
      "валась": 3936,
      "ваемы": 3937,
      "вательство": 3938,
      "важней": 3939,
      "вачок": 3940,
      "вори": 3941,
      "воло": 3942,
      "воен": 3943,
      "воле": 3944,
      "вому": 3945,
      "воля": 3946,
      "вопре": 3947,
      "воспо": 3948,
      "вопло": 3949,
      "вообра": 3950,
      "волей": 3951,
      "вожу": 3952,
      "воочере": 3953,
      "вочка": 3954,
      "водов": 3955,
      "военных": 3956,
      "востью": 3957,
      "вопят": 3958,
      "воротное": 3959,
      "реть": 3960,
      "рено": 3961,
      "рель": 3962,
      "речи": 3963,
      "реса": 3964,
      "ресто": 3965,
      "рение": 3966,
      "репре": 3967,
      "ревно": 3968,
      "респе": 3969,
      "рефе": 3970,
      "револю": 3971,
      "резю": 3972,
      "рекомен": 3973,
      "лить": 3974,
      "лист": 3975,
      "лите": 3976,
      "лита": 3977,
      "лила": 3978,
      "лити": 3979,
      "лича": 3980,
      "литься": 3981,
      "лиши": 3982,
      "ликом": 3983,
      "лиша": 3984,
      "ливает": 3985,
      "лилось": 3986,
      "литера": 3987,
      "личке": 3988,
      "личных": 3989,
      "лифици": 3990,
      "липоса": 3991,
      "сятся": 3992,
      "гори": 3993,
      "гови": 3994,
      "голя": 3995,
      "гораз": 3996,
      "гости": 3997,
      "госу": 3998,
      "годом": 3999,
      "гоценно": 4000,
      "тема": 4001,
      "тему": 4002,
      "теют": 4003,
      "тебе": 4004,
      "терен": 4005,
      "тепло": 4006,
      "тесту": 4007,
      "телей": 4008,
      "телен": 4009,
      "теликом": 4010,
      "тегори": 4011,
      "кают": 4012,
      "каса": 4013,
      "каби": 4014,
      "каком": 4015,
      "каков": 4016,
      "карма": 4017,
      "кафе": 4018,
      "карт": 4019,
      "каким": 4020,
      "канс": 4021,
      "калки": 4022,
      "катит": 4023,
      "каких": 4024,
      "каблу": 4025,
      "карная": 4026,
      "катность": 4027,
      "кашку": 4028,
      "канику": 4029,
      "какова": 4030,
      "категори": 4031,
      "сел": 4032,
      "сен": 4033,
      "сец": 4034,
      "село": 4035,
      "семи": 4036,
      "селя": 4037,
      "сение": 4038,
      "седы": 4039,
      "сеан": 4040,
      "секать": 4041,
      "сезона": 4042,
      "серотони": 4043,
      "мом": 4044,
      "море": 4045,
      "могла": 4046,
      "мочные": 4047,
      "модели": 4048,
      "мостка": 4049,
      "монстрация": 4050,
      "монитор": 4051,
      "моральные": 4052,
      "морощенных": 4053,
      "льм": 4054,
      "льтом": 4055,
      "льную": 4056,
      "льский": 4057,
      "льников": 4058,
      "льщики": 4059,
      "льтуру": 4060,
      "рики": 4061,
      "рись": 4062,
      "рион": 4063,
      "римен": 4064,
      "рица": 4065,
      "риоди": 4066,
      "риал": 4067,
      "рируют": 4068,
      "рительные": 4069,
      "ритори": 4070,
      "тами": 4071,
      "тасти": 4072,
      "тально": 4073,
      "тажа": 4074,
      "таски": 4075,
      "такого": 4076,
      "таща": 4077,
      "такие": 4078,
      "такую": 4079,
      "табли": 4080,
      "талки": 4081,
      "тайский": 4082,
      "тахика": 4083,
      "тайные": 4084,
      "танчи": 4085,
      "дал": 4086,
      "дам": 4087,
      "даю": 4088,
      "дача": 4089,
      "дается": 4090,
      "дамы": 4091,
      "дайте": 4092,
      "дации": 4093,
      "далось": 4094,
      "дальные": 4095,
      "данная": 4096,
      "давление": 4097,
      "дательство": 4098,
      "давца": 4099,
      "дарстве": 4100,
      "лая": 4101,
      "лать": 4102,
      "лара": 4103,
      "лажа": 4104,
      "ласко": 4105,
      "лавры": 4106,
      "хом": 4107,
      "хожи": 4108,
      "ходя": 4109,
      "хологи": 4110,
      "ховное": 4111,
      "хозя": 4112,
      "хонной": 4113,
      "лое": 4114,
      "лой": 4115,
      "лобо": 4116,
      "ловы": 4117,
      "лови": 4118,
      "лости": 4119,
      "ловать": 4120,
      "лоту": 4121,
      "ломать": 4122,
      "ложение": 4123,
      "лостяк": 4124,
      "дови": 4125,
      "доста": 4126,
      "доку": 4127,
      "догово": 4128,
      "допу": 4129,
      "добро": 4130,
      "дополне": 4131,
      "добира": 4132,
      "дован": 4133,
      "доставля": 4134,
      "доской": 4135,
      "дового": 4136,
      "доказа": 4137,
      "дораста": 4138,
      "добр": 4139,
      "домоча": 4140,
      "доклады": 4141,
      "дофами": 4142,
      "донесли": 4143,
      "доморощенных": 4144,
      "боди": 4145,
      "бога": 4146,
      "больно": 4147,
      "бовь": 4148,
      "бочке": 4149,
      "боток": 4150,
      "борота": 4151,
      "енную": 4152,
      "ентам": 4153,
      "ентность": 4154,
      "заны": 4155,
      "зами": 4156,
      "зача": 4157,
      "заци": 4158,
      "зага": 4159,
      "заду": 4160,
      "заря": 4161,
      "заня": 4162,
      "затя": 4163,
      "замуж": 4164,
      "заба": 4165,
      "зации": 4166,
      "заменя": 4167,
      "зажить": 4168,
      "захотите": 4169,
      "запол": 4170,
      "завле": 4171,
      "захочу": 4172,
      "залось": 4173,
      "заболе": 4174,
      "зайти": 4175,
      "захва": 4176,
      "заподо": 4177,
      "заглу": 4178,
      "запой": 4179,
      "зацией": 4180,
      "залож": 4181,
      "захвата": 4182,
      "заводить": 4183,
      "запусти": 4184,
      "закреп": 4185,
      "засасы": 4186,
      "заработаю": 4187,
      "задержаться": 4188,
      "займе": 4189,
      "закалки": 4190,
      "замочные": 4191,
      "дес": 4192,
      "деет": 4193,
      "деви": 4194,
      "делу": 4195,
      "деду": 4196,
      "дельная": 4197,
      "десят": 4198,
      "деляется": 4199,
      "дефици": 4200,
      "деструкти": 4201,
      "дегтя": 4202,
      "деятельно": 4203,
      "демонстрация": 4204,
      "дерись": 4205,
      "мал": 4206,
      "мам": 4207,
      "ман": 4208,
      "мало": 4209,
      "мами": 4210,
      "маги": 4211,
      "маку": 4212,
      "мату": 4213,
      "матер": 4214,
      "мался": 4215,
      "манера": 4216,
      "матывает": 4217,
      "малый": 4218,
      "маеч": 4219,
      "проче": 4220,
      "прочи": 4221,
      "прости": 4222,
      "простра": 4223,
      "пробу": 4224,
      "проце": 4225,
      "прожить": 4226,
      "продаже": 4227,
      "просту": 4228,
      "простати": 4229,
      "проход": 4230,
      "просты": 4231,
      "проброса": 4232,
      "проница": 4233,
      "просят": 4234,
      "проживает": 4235,
      "прошла": 4236,
      "проходной": 4237,
      "прошел": 4238,
      "прочитать": 4239,
      "проекта": 4240,
      "прочла": 4241,
      "проявления": 4242,
      "провала": 4243,
      "протесту": 4244,
      "прокатит": 4245,
      "продавца": 4246,
      "прохожи": 4247,
      "чек": 4248,
      "чена": 4249,
      "чения": 4250,
      "чение": 4251,
      "ческой": 4252,
      "ческом": 4253,
      "вым": 4254,
      "выбе": 4255,
      "высво": 4256,
      "выпи": 4257,
      "выстро": 4258,
      "вызыва": 4259,
      "выжива": 4260,
      "выбира": 4261,
      "вывести": 4262,
      "выговор": 4263,
      "выслуша": 4264,
      "выхода": 4265,
      "выстре": 4266,
      "высказыва": 4267,
      "выстроен": 4268,
      "вывод": 4269,
      "выходе": 4270,
      "выучить": 4271,
      "выложил": 4272,
      "выписы": 4273,
      "выявление": 4274,
      "жие": 4275,
      "жил": 4276,
      "живо": 4277,
      "жили": 4278,
      "жимо": 4279,
      "жины": 4280,
      "живание": 4281,
      "живые": 4282,
      "живого": 4283,
      "живем": 4284,
      "лее": 4285,
      "лем": 4286,
      "лени": 4287,
      "лежа": 4288,
      "левой": 4289,
      "леполага": 4290,
      "летопи": 4291,
      "лечение": 4292,
      "век": 4293,
      "вес": 4294,
      "вец": 4295,
      "веру": 4296,
      "весо": 4297,
      "вещи": 4298,
      "вечно": 4299,
      "ведете": 4300,
      "веков": 4301,
      "величи": 4302,
      "вешенно": 4303,
      "верят": 4304,
      "верить": 4305,
      "вечер": 4306,
      "ведли": 4307,
      "веками": 4308,
      "велосипе": 4309,
      "венением": 4310,
      "весело": 4311,
      "жений": 4312,
      "жених": 4313,
      "женить": 4314,
      "жением": 4315,
      "жествен": 4316,
      "жесты": 4317,
      "сию": 4318,
      "сия": 4319,
      "сить": 4320,
      "силу": 4321,
      "сится": 4322,
      "сидите": 4323,
      "сидеть": 4324,
      "сильные": 4325,
      "сильный": 4326,
      "сидят": 4327,
      "сидит": 4328,
      "сильным": 4329,
      "сильнее": 4330,
      "силами": 4331,
      "сиживание": 4332,
      "муника": 4333,
      "мучается": 4334,
      "мунд": 4335,
      "мика": 4336,
      "мимо": 4337,
      "мила": 4338,
      "мились": 4339,
      "митте": 4340,
      "минающая": 4341,
      "минимум": 4342,
      "мимика": 4343,
      "обры": 4344,
      "обсле": 4345,
      "обрет": 4346,
      "облом": 4347,
      "облез": 4348,
      "обмена": 4349,
      "общих": 4350,
      "обнов": 4351,
      "обсасы": 4352,
      "обсуждения": 4353,
      "обуза": 4354,
      "тина": 4355,
      "тила": 4356,
      "тихо": 4357,
      "тиве": 4358,
      "тику": 4359,
      "типи": 4360,
      "тике": 4361,
      "тивные": 4362,
      "тидепрес": 4363,
      "тированы": 4364,
      "тизм": 4365,
      "виг": 4366,
      "вид": 4367,
      "вис": 4368,
      "вине": 4369,
      "вина": 4370,
      "висти": 4371,
      "витель": 4372,
      "видения": 4373,
      "вировать": 4374,
      "видели": 4375,
      "висел": 4376,
      "кивает": 4377,
      "кинет": 4378,
      "китайский": 4379,
      "див": 4380,
      "дили": 4381,
      "диться": 4382,
      "дись": 4383,
      "дику": 4384,
      "дией": 4385,
      "дишь": 4386,
      "диспо": 4387,
      "дисты": 4388,
      "диском": 4389,
      "диало": 4390,
      "дискреди": 4391,
      "диетами": 4392,
      "диване": 4393,
      "этой": 4394,
      "любу": 4395,
      "отнима": 4396,
      "отсле": 4397,
      "отца": 4398,
      "отвле": 4399,
      "отделе": 4400,
      "отклю": 4401,
      "откажется": 4402,
      "отвести": 4403,
      "отдают": 4404,
      "отню": 4405,
      "отказа": 4406,
      "отсиде": 4407,
      "отнес": 4408,
      "отклады": 4409,
      "отражение": 4410,
      "отворотное": 4411,
      "отлича": 4412,
      "отрица": 4413,
      "отталки": 4414,
      "отдельная": 4415,
      "отматывает": 4416,
      "чин": 4417,
      "чить": 4418,
      "чите": 4419,
      "чиха": 4420,
      "число": 4421,
      "чиваться": 4422,
      "числа": 4423,
      "чившись": 4424,
      "чипсы": 4425,
      "чистюля": 4426,
      "чиваем": 4427,
      "чивостью": 4428,
      "быту": 4429,
      "бытия": 4430,
      "быточный": 4431,
      "бывало": 4432,
      "рука": 4433,
      "руки": 4434,
      "руку": 4435,
      "рукой": 4436,
      "руйтесь": 4437,
      "ручки": 4438,
      "ружье": 4439,
      "руждает": 4440,
      "рурга": 4441,
      "рутина": 4442,
      "чай": 4443,
      "чат": 4444,
      "чаю": 4445,
      "чата": 4446,
      "часо": 4447,
      "часть": 4448,
      "часу": 4449,
      "часов": 4450,
      "чашка": 4451,
      "чающих": 4452,
      "приходи": 4453,
      "придет": 4454,
      "приска": 4455,
      "притя": 4456,
      "приба": 4457,
      "прием": 4458,
      "призы": 4459,
      "причем": 4460,
      "прислу": 4461,
      "приходит": 4462,
      "пригла": 4463,
      "придя": 4464,
      "придает": 4465,
      "прикла": 4466,
      "принад": 4467,
      "прийти": 4468,
      "приклю": 4469,
      "пригото": 4470,
      "прикры": 4471,
      "признают": 4472,
      "прислуша": 4473,
      "привели": 4474,
      "привяза": 4475,
      "пришла": 4476,
      "примите": 4477,
      "примета": 4478,
      "приличного": 4479,
      "призвание": 4480,
      "пришлось": 4481,
      "принесет": 4482,
      "приравни": 4483,
      "природы": 4484,
      "привожу": 4485,
      "притаски": 4486,
      "приобрет": 4487,
      "прикинет": 4488,
      "сок": 4489,
      "сом": 4490,
      "сона": 4491,
      "соста": 4492,
      "софо": 4493,
      "соваться": 4494,
      "сокра": 4495,
      "совсем": 4496,
      "сойти": 4497,
      "совести": 4498,
      "соответ": 4499,
      "состоит": 4500,
      "созда": 4501,
      "соприкоснове": 4502,
      "содро": 4503,
      "создают": 4504,
      "солда": 4505,
      "сама": 4506,
      "саму": 4507,
      "саме": 4508,
      "саться": 4509,
      "садя": 4510,
      "сажива": 4511,
      "сальный": 4512,
      "садов": 4513,
      "садится": 4514,
      "сающее": 4515,
      "сайтам": 4516,
      "санты": 4517,
      "всей": 4518,
      "всему": 4519,
      "меда": 4520,
      "между": 4521,
      "местить": 4522,
      "медленно": 4523,
      "лят": 4524,
      "ляла": 4525,
      "ляции": 4526,
      "лялок": 4527,
      "ляжем": 4528,
      "цисси": 4529,
      "сток": 4530,
      "столько": 4531,
      "столяр": 4532,
      "шек": 4533,
      "шеф": 4534,
      "шения": 4535,
      "шести": 4536,
      "шение": 4537,
      "шевели": 4538,
      "шевных": 4539,
      "шедшая": 4540,
      "щей": 4541,
      "щем": 4542,
      "щена": 4543,
      "щение": 4544,
      "щедр": 4545,
      "стал": 4546,
      "стам": 4547,
      "стая": 4548,
      "стает": 4549,
      "стами": 4550,
      "ставь": 4551,
      "стальной": 4552,
      "стагра": 4553,
      "сталки": 4554,
      "станавли": 4555,
      "старуш": 4556,
      "старших": 4557,
      "старой": 4558,
      "бежно": 4559,
      "беспо": 4560,
      "бесси": 4561,
      "бельные": 4562,
      "белень": 4563,
      "бессо": 4564,
      "беспокой": 4565,
      "бедой": 4566,
      "берут": 4567,
      "бегле": 4568,
      "беспреде": 4569,
      "беседы": 4570,
      "пей": 4571,
      "пес": 4572,
      "пени": 4573,
      "пела": 4574,
      "певто": 4575,
      "периоди": 4576,
      "рывается": 4577,
      "рынка": 4578,
      "рыгнет": 4579,
      "мый": 4580,
      "мых": 4581,
      "мываться": 4582,
      "мытая": 4583,
      "сьте": 4584,
      "разгово": 4585,
      "разными": 4586,
      "различно": 4587,
      "разрешить": 4588,
      "разгля": 4589,
      "различи": 4590,
      "разрешение": 4591,
      "разводи": 4592,
      "раздво": 4593,
      "разряд": 4594,
      "разговор": 4595,
      "разница": 4596,
      "разглядеть": 4597,
      "разруш": 4598,
      "разновидно": 4599,
      "разводов": 4600,
      "раздается": 4601,
      "разделяется": 4602,
      "разместить": 4603,
      "разрывается": 4604,
      "утра": 4605,
      "утруждает": 4606,
      "стиль": 4607,
      "стихи": 4608,
      "стике": 4609,
      "стические": 4610,
      "стижной": 4611,
      "стираются": 4612,
      "какую": 4613,
      "етекши": 4614,
      "лучать": 4615,
      "лучается": 4616,
      "лузер": 4617,
      "шивайтесь": 4618,
      "широким": 4619,
      "шикарная": 4620,
      "слить": 4621,
      "гию": 4622,
      "гика": 4623,
      "гиби": 4624,
      "гивает": 4625,
      "гипер": 4626,
      "изменя": 4627,
      "изобра": 4628,
      "излечи": 4629,
      "измота": 4630,
      "избыточный": 4631,
      "излучать": 4632,
      "онтак": 4633,
      "онкологи": 4634,
      "бич": 4635,
      "бине": 4636,
      "бить": 4637,
      "били": 4638,
      "биться": 4639,
      "бивален": 4640,
      "бирки": 4641,
      "рабочего": 4642,
      "рабочем": 4643,
      "работой": 4644,
      "работода": 4645,
      "гами": 4646,
      "гаться": 4647,
      "гается": 4648,
      "гайте": 4649,
      "гарет": 4650,
      "гаюсь": 4651,
      "ганг": 4652,
      "куры": 4653,
      "кучу": 4654,
      "купить": 4655,
      "курит": 4656,
      "куплю": 4657,
      "курите": 4658,
      "купили": 4659,
      "кусство": 4660,
      "кухне": 4661,
      "культуру": 4662,
      "кухонной": 4663,
      "пают": 4664,
      "паться": 4665,
      "паря": 4666,
      "памя": 4667,
      "паца": 4668,
      "папой": 4669,
      "падают": 4670,
      "патологи": 4671,
      "знал": 4672,
      "знает": 4673,
      "знаки": 4674,
      "щий": 4675,
      "льного": 4676,
      "нули": 4677,
      "нужнее": 4678,
      "нущих": 4679,
      "такси": 4680,
      "дусь": 4681,
      "дуга": 4682,
      "дугу": 4683,
      "духу": 4684,
      "духе": 4685,
      "дустри": 4686,
      "духовное": 4687,
      "душевных": 4688,
      "меню": 4689,
      "тухло": 4690,
      "туицию": 4691,
      "жат": 4692,
      "жатся": 4693,
      "жадно": 4694,
      "жайте": 4695,
      "жаемы": 4696,
      "жарным": 4697,
      "После": 4698,
      "Постоя": 4699,
      "Попробовать": 4700,
      "Погода": 4701,
      "Покончи": 4702,
      "Повод": 4703,
      "Поставить": 4704,
      "Подруга": 4705,
      "Полюбите": 4706,
      "Помните": 4707,
      "Поедешь": 4708,
      "Подавление": 4709,
      "Попробу": 4710,
      "Помимо": 4711,
      "Получается": 4712,
      "Пожарным": 4713,
      "комп": 4714,
      "комменты": 4715,
      "коммуника": 4716,
      "ряют": 4717,
      "ряете": 4718,
      "ряски": 4719,
      "ряющи": 4720,
      "ряетесь": 4721,
      "пресы": 4722,
      "препара": 4723,
      "прервать": 4724,
      "превен": 4725,
      "презри": 4726,
      "прежними": 4727,
      "пресекать": 4728,
      "предательство": 4729,
      "чусь": 4730,
      "чужим": 4731,
      "чувачок": 4732,
      "чудови": 4733,
      "чудес": 4734,
      "чужие": 4735,
      "которым": 4736,
      "нимая": 4737,
      "стран": 4738,
      "страх": 4739,
      "страна": 4740,
      "страны": 4741,
      "страсть": 4742,
      "страной": 4743,
      "стракт": 4744,
      "страхе": 4745,
      "страхов": 4746,
      "страиваться": 4747,
      "страдал": 4748,
      "страхом": 4749,
      "буется": 4750,
      "будут": 4751,
      "будем": 4752,
      "бурные": 4753,
      "бумаги": 4754,
      "испы": 4755,
      "исходит": 4756,
      "исполне": 4757,
      "исход": 4758,
      "исходе": 4759,
      "искусство": 4760,
      "чной": 4761,
      "чном": 4762,
      "чность": 4763,
      "чности": 4764,
      "тый": 4765,
      "тым": 4766,
      "тых": 4767,
      "тывают": 4768,
      "тывал": 4769,
      "тывающие": 4770,
      "делаю": 4771,
      "делают": 4772,
      "деланного": 4773,
      "ньте": 4774,
      "ились": 4775,
      "шаг": 4776,
      "шах": 4777,
      "шаю": 4778,
      "шать": 4779,
      "шают": 4780,
      "шаетесь": 4781,
      "пия": 4782,
      "пите": 4783,
      "питься": 4784,
      "пирами": 4785,
      "пионер": 4786,
      "пирожно": 4787,
      "пилят": 4788,
      "самому": 4789,
      "самопреодоле": 4790,
      "самоуби": 4791,
      "самоотвер": 4792,
      "самореализация": 4793,
      "самодеятельно": 4794,
      "самолечение": 4795,
      "няю": 4796,
      "няет": 4797,
      "право": 4798,
      "правой": 4799,
      "прабабушки": 4800,
      "прасные": 4801,
      "прадеду": 4802,
      "скими": 4803,
      "консу": 4804,
      "конце": 4805,
      "констати": 4806,
      "концеп": 4807,
      "конкурс": 4808,
      "концов": 4809,
      "конструкти": 4810,
      "концлагере": 4811,
      "коннике": 4812,
      "Нож": 4813,
      "Новый": 4814,
      "Норве": 4815,
      "детство": 4816,
      "детях": 4817,
      "детских": 4818,
      "деталь": 4819,
      "онально": 4820,
      "человеком": 4821,
      "енной": 4822,
      "слев": 4823,
      "хие": 4824,
      "хии": 4825,
      "хищения": 4826,
      "хирурга": 4827,
      "вной": 4828,
      "общения": 4829,
      "общество": 4830,
      "обществе": 4831,
      "общечеловеческая": 4832,
      "общеизвестно": 4833,
      "сути": 4834,
      "суются": 4835,
      "судь": 4836,
      "сумер": 4837,
      "сухая": 4838,
      "субъ": 4839,
      "судка": 4840,
      "ктор": 4841,
      "кторная": 4842,
      "психоза": 4843,
      "психовать": 4844,
      "психотера": 4845,
      "психопатологи": 4846,
      "вуз": 4847,
      "вушка": 4848,
      "дность": 4849,
      "дновать": 4850,
      "говоры": 4851,
      "говоря": 4852,
      "можется": 4853,
      "желании": 4854,
      "желанию": 4855,
      "Нехва": 4856,
      "Неосозна": 4857,
      "Неудовлетво": 4858,
      "Ненормально": 4859,
      "Недавно": 4860,
      "Нервные": 4861,
      "Недоста": 4862,
      "Немедленно": 4863,
      "скает": 4864,
      "скайте": 4865,
      "скамей": 4866,
      "скажет": 4867,
      "скажешь": 4868,
      "скажем": 4869,
      "трезво": 4870,
      "тренаже": 4871,
      "требуется": 4872,
      "целы": 4873,
      "ценой": 4874,
      "целом": 4875,
      "целая": 4876,
      "целеполага": 4877,
      "любила": 4878,
      "любимой": 4879,
      "любимого": 4880,
      "перейти": 4881,
      "переживать": 4882,
      "перебира": 4883,
      "переживает": 4884,
      "перенервнича": 4885,
      "переписка": 4886,
      "перерасти": 4887,
      "перееду": 4888,
      "переселя": 4889,
      "переданная": 4890,
      "сын": 4891,
      "сыном": 4892,
      "сывайте": 4893,
      "сыпать": 4894,
      "сылать": 4895,
      "ствии": 4896,
      "ствий": 4897,
      "ствитель": 4898,
      "подход": 4899,
      "подряд": 4900,
      "подтвер": 4901,
      "подраста": 4902,
      "подсма": 4903,
      "подписы": 4904,
      "подмостка": 4905,
      "подвиг": 4906,
      "подсажива": 4907,
      "подсыпать": 4908,
      "бойтесь": 4909,
      "жену": 4910,
      "женным": 4911,
      "инстру": 4912,
      "инвали": 4913,
      "инфля": 4914,
      "интонации": 4915,
      "инстагра": 4916,
      "ингиби": 4917,
      "индустри": 4918,
      "интуицию": 4919,
      "мысленно": 4920,
      "путь": 4921,
      "пусть": 4922,
      "пустом": 4923,
      "пучину": 4924,
      "пункт": 4925,
      "пугови": 4926,
      "пуляции": 4927,
      "пугается": 4928,
      "тяне": 4929,
      "тянет": 4930,
      "тяжкие": 4931,
      "тянущих": 4932,
      "расписа": 4933,
      "рассла": 4934,
      "распробовать": 4935,
      "рассказыва": 4936,
      "рассчи": 4937,
      "расстраиваться": 4938,
      "рассудка": 4939,
      "рассылать": 4940,
      "мужчину": 4941,
      "мужского": 4942,
      "мужчин": 4943,
      "относят": 4944,
      "относятся": 4945,
      "хорошень": 4946,
      "больна": 4947,
      "больная": 4948,
      "больших": 4949,
      "перти": 4950,
      "первой": 4951,
      "первая": 4952,
      "первых": 4953,
      "первую": 4954,
      "перпен": 4955,
      "перетрут": 4956,
      "первоочере": 4957,
      "первым": 4958,
      "перетекши": 4959,
      "бар": 4960,
      "бах": 4961,
      "бами": 4962,
      "баете": 4963,
      "бально": 4964,
      "балл": 4965,
      "баллом": 4966,
      "бабах": 4967,
      "емся": 4968,
      "спорят": 4969,
      "неесте": 4970,
      "верный": 4971,
      "верных": 4972,
      "верность": 4973,
      "вертая": 4974,
      "вернуться": 4975,
      "версия": 4976,
      "версальный": 4977,
      "вербально": 4978,
      "дьбу": 4979,
      "дьба": 4980,
      "собственно": 4981,
      "собачь": 4982,
      "соберем": 4983,
      "собира": 4984,
      "смыслу": 4985,
      "смыслы": 4986,
      "смыслом": 4987,
      "возлюб": 4988,
      "примеров": 4989,
      "применения": 4990,
      "работал": 4991,
      "работая": 4992,
      "работали": 4993,
      "летни": 4994,
      "летнее": 4995,
      "летним": 4996,
      "летнему": 4997,
      "летняя": 4998,
      "мнез": 4999,
      "мнения": 5000,
      "мнению": 5001,
      "случиться": 5002,
      "слухов": 5003,
      "чувствам": 5004,
      "чувствитель": 5005,
      "Наши": 5006,
      "Научиться": 5007,
      "Народ": 5008,
      "Налицо": 5009,
      "Наблю": 5010,
      "Нашедшая": 5011,
      "Напрасные": 5012,
      "временно": 5013,
      "вредной": 5014,
      "вредная": 5015,
      "ностью": 5016,
      "стечении": 5017,
      "степени": 5018,
      "ренные": 5019,
      "ренный": 5020,
      "ренным": 5021,
      "меняться": 5022,
      "меняется": 5023,
      "меняющимся": 5024,
      "отношении": 5025,
      "отношению": 5026,
      "хаил": 5027,
      "реала": 5028,
      "реальный": 5029,
      "долг": 5030,
      "доллара": 5031,
      "ческий": 5032,
      "дительны": 5033,
      "вроде": 5034,
      "губляет": 5035,
      "детели": 5036,
      "плаву": 5037,
      "плачет": 5038,
      "плакать": 5039,
      "планирова": 5040,
      "планше": 5041,
      "пластические": 5042,
      "сной": 5043,
      "сном": 5044,
      "человеке": 5045,
      "тельное": 5046,
      "психику": 5047,
      "психическое": 5048,
      "внений": 5049,
      "строк": 5050,
      "строфа": 5051,
      "тельным": 5052,
      "тельства": 5053,
      "тельница": 5054,
      "тельницы": 5055,
      "говорил": 5056,
      "говорили": 5057,
      "говорила": 5058,
      "говорится": 5059,
      "говоришь": 5060,
      "говорилось": 5061,
      "Дайте": 5062,
      "Давайте": 5063,
      "Дальше": 5064,
      "вясь": 5065,
      "пьем": 5066,
      "пьях": 5067,
      "пьющим": 5068,
      "терная": 5069,
      "терпя": 5070,
      "терпите": 5071,
      "желаниями": 5072,
      "примерно": 5073,
      "вляют": 5074,
      "плоский": 5075,
      "плохая": 5076,
      "плохие": 5077,
      "семьей": 5078,
      "любого": 5079,
      "думал": 5080,
      "думаю": 5081,
      "думаешь": 5082,
      "Кому": 5083,
      "Колиз": 5084,
      "рманс": 5085,
      "ссия": 5086,
      "цами": 5087,
      "щать": 5088,
      "щаться": 5089,
      "щаете": 5090,
      "невроз": 5091,
      "неврозы": 5092,
      "понимая": 5093,
      "понимается": 5094,
      "понимаете": 5095,
      "понимании": 5096,
      "пониманием": 5097,
      "вопросу": 5098,
      "вопрошая": 5099,
      "лизируя": 5100,
      "технологи": 5101,
      "безобраз": 5102,
      "бездене": 5103,
      "безработ": 5104,
      "безразлично": 5105,
      "безвредной": 5106,
      "проблемам": 5107,
      "зывают": 5108,
      "внешние": 5109,
      "внешних": 5110,
      "внешним": 5111,
      "внешнем": 5112,
      "внешними": 5113,
      "Просто": 5114,
      "Прояви": 5115,
      "Просиживание": 5116,
      "Происходит": 5117,
      "глаз": 5118,
      "глава": 5119,
      "главная": 5120,
      "главных": 5121,
      "глазами": 5122,
      "драм": 5123,
      "дражитель": 5124,
      "драйв": 5125,
      "драгоценно": 5126,
      "ктивные": 5127,
      "лые": 5128,
      "лым": 5129,
      "лых": 5130,
      "нравятся": 5131,
      "нравился": 5132,
      "нутый": 5133,
      "спешат": 5134,
      "сперимен": 5135,
      "спечить": 5136,
      "справиться": 5137,
      "нервная": 5138,
      "нервной": 5139,
      "тембр": 5140,
      "счастлив": 5141,
      "счастлива": 5142,
      "слов": 5143,
      "сломать": 5144,
      "сложной": 5145,
      "словами": 5146,
      "сложную": 5147,
      "сломался": 5148,
      "феоз": 5149,
      "фоточки": 5150,
      "фотогра": 5151,
      "полно": 5152,
      "полной": 5153,
      "полном": 5154,
      "полное": 5155,
      "полностью": 5156,
      "помогать": 5157,
      "помогает": 5158,
      "помогли": 5159,
      "последня": 5160,
      "послезавтра": 5161,
      "родителям": 5162,
      "родительский": 5163,
      "теребить": 5164,
      "простой": 5165,
      "самим": 5166,
      "лучший": 5167,
      "женщину": 5168,
      "зубы": 5169,
      "зудит": 5170,
      "играя": 5171,
      "игнори": 5172,
      "круто": 5173,
      "кругу": 5174,
      "многое": 5175,
      "многолетнее": 5176,
      "ртфон": 5177,
      "считать": 5178,
      "считала": 5179,
      "считается": 5180,
      "считались": 5181,
      "ясного": 5182,
      "ясным": 5183,
      "ясняя": 5184,
      "живете": 5185,
      "ситуаций": 5186,
      "Выпьем": 5187,
      "Выясняя": 5188,
      "Притом": 5189,
      "Причем": 5190,
      "Причина": 5191,
      "Приез": 5192,
      "Придер": 5193,
      "Придумают": 5194,
      "Признаю": 5195,
      "Пример": 5196,
      "Придется": 5197,
      "Приуча": 5198,
      "Прикоснове": 5199,
      "Принимая": 5200,
      "брак": 5201,
      "обоих": 5202,
      "обожает": 5203,
      "обобрать": 5204,
      "обобщения": 5205,
      "обостряются": 5206,
      "фии": 5207,
      "фига": 5208,
      "фишка": 5209,
      "фикси": 5210,
      "филфак": 5211,
      "фирме": 5212,
      "фильм": 5213,
      "чье": 5214,
      "чьем": 5215,
      "образа": 5216,
      "обратно": 5217,
      "обращаясь": 5218,
      "другими": 5219,
      "конфета": 5220,
      "тревожной": 5221,
      "тревожиться": 5222,
      "тревогой": 5223,
      "тревожный": 5224,
      "тревожных": 5225,
      "тревожатся": 5226,
      "интересами": 5227,
      "интересов": 5228,
      "интересуются": 5229,
      "невротиком": 5230,
      "невротические": 5231,
      "невротическое": 5232,
      "невротической": 5233,
      "Нужно": 5234,
      "гений": 5235,
      "гешта": 5236,
      "германс": 5237,
      "криком": 5238,
      "кричать": 5239,
      "критери": 5240,
      "кричите": 5241,
      "кричат": 5242,
      "решений": 5243,
      "решении": 5244,
      "выйдете": 5245,
      "выйдя": 5246,
      "образная": 5247,
      "образуют": 5248,
      "образуется": 5249,
      "циативе": 5250,
      "предпринима": 5251,
      "предвку": 5252,
      "предпринимает": 5253,
      "предполага": 5254,
      "предложил": 5255,
      "предложение": 5256,
      "другом": 5257,
      "другого": 5258,
      "способа": 5259,
      "способы": 5260,
      "способна": 5261,
      "способности": 5262,
      "способами": 5263,
      "пытается": 5264,
      "бросили": 5265,
      "брошу": 5266,
      "влена": 5267,
      "влении": 5268,
      "влечении": 5269,
      "влезет": 5270,
      "звонок": 5271,
      "звонка": 5272,
      "кладут": 5273,
      "нном": 5274,
      "учит": 5275,
      "учился": 5276,
      "учителя": 5277,
      "учительница": 5278,
      "язают": 5279,
      "важной": 5280,
      "борщ": 5281,
      "борется": 5282,
      "зависти": 5283,
      "завидую": 5284,
      "живали": 5285,
      "живают": 5286,
      "живания": 5287,
      "живайтесь": 5288,
      "женам": 5289,
      "женат": 5290,
      "которого": 5291,
      "значились": 5292,
      "значимость": 5293,
      "возможность": 5294,
      "возможности": 5295,
      "возможностях": 5296,
      "спрашиваешь": 5297,
      "уверенные": 5298,
      "внимые": 5299,
      "всяком": 5300,
      "всячески": 5301,
      "всякую": 5302,
      "одновременно": 5303,
      "пятая": 5304,
      "пялиться": 5305,
      "пятый": 5306,
      "центре": 5307,
      "этаким": 5308,
      "нейротра": 5309,
      "личной": 5310,
      "логичный": 5311,
      "дорогие": 5312,
      "дорожите": 5313,
      "обязаны": 5314,
      "обязательным": 5315,
      "принимаются": 5316,
      "советами": 5317,
      "советников": 5318,
      "компромисса": 5319,
      "искали": 5320,
      "любовью": 5321,
      "счастливыми": 5322,
      "конфликт": 5323,
      "конфликтом": 5324,
      "конфликтным": 5325,
      "?»;": 5326,
      "Велосипе": 5327,
      "Венецию": 5328,
      "Всего": 5329,
      "Всемир": 5330,
      "Ниже": 5331,
      "Никак": 5332,
      "Никогда": 5333,
      "Никакого": 5334,
      "Николь": 5335,
      "антидепрес": 5336,
      "взгля": 5337,
      "взгляд": 5338,
      "взять": 5339,
      "взвешенно": 5340,
      "глядишь": 5341,
      "крайней": 5342,
      "недобор": 5343,
      "недопусти": 5344,
      "недоразвито": 5345,
      "недообсле": 5346,
      "недомытая": 5347,
      "никами": 5348,
      "поступать": 5349,
      "поступков": 5350,
      "поступают": 5351,
      "войны": 5352,
      "теряю": 5353,
      "терять": 5354,
      "теряет": 5355,
      "теряют": 5356,
      "льтацию": 5357,
      "хотели": 5358,
      "хотела": 5359,
      "объятий": 5360,
      "совпадают": 5361,
      "статистика": 5362,
      "статистике": 5363,
      "самооценки": 5364,
      "счастьем": 5365,
      "психология": 5366,
      "психологические": 5367,
      "психологизации": 5368,
      "случается": 5369,
      "случайно": 5370,
      "случайной": 5371,
      "зависите": 5372,
      "Какие": 5373,
      "Какая": 5374,
      "Каким": 5375,
      "Каких": 5376,
      "Карабас": 5377,
      "Карамазо": 5378,
      "Казалось": 5379,
      "Мои": 5380,
      "Моск": 5381,
      "езжу": 5382,
      "зина": 5383,
      "зиции": 5384,
      "иметь": 5385,
      "имела": 5386,
      "имеющимся": 5387,
      "кредит": 5388,
      "клюют": 5389,
      "ленного": 5390,
      "ленному": 5391,
      "ленность": 5392,
      "омлет": 5393,
      "однако": 5394,
      "умею": 5395,
      "умеет": 5396,
      "умещаются": 5397,
      "умерла": 5398,
      "умереть": 5399,
      "ущением": 5400,
      "нормальная": 5401,
      "нормальных": 5402,
      "начинаю": 5403,
      "начинается": 5404,
      "начинаются": 5405,
      "повода": 5406,
      "поводом": 5407,
      "поводов": 5408,
      "положим": 5409,
      "половин": 5410,
      "волну": 5411,
      "волноваться": 5412,
      "вырасти": 5413,
      "выражать": 5414,
      "вырастить": 5415,
      "вырастут": 5416,
      "вырастает": 5417,
      "привыкла": 5418,
      "привычка": 5419,
      "привычными": 5420,
      "привыкну": 5421,
      "привычным": 5422,
      "мечтам": 5423,
      "жающиеся": 5424,
      "страшно": 5425,
      "страшен": 5426,
      "страшная": 5427,
      "страшное": 5428,
      "страшнень": 5429,
      "правит": 5430,
      "правила": 5431,
      "правильный": 5432,
      "Зато": 5433,
      "Заблу": 5434,
      "Заоргани": 5435,
      "Задача": 5436,
      "Рассказыва": 5437,
      "мное": 5438,
      "остаться": 5439,
      "остаются": 5440,
      "остались": 5441,
      "оставить": 5442,
      "остальным": 5443,
      "останавли": 5444,
      "определяется": 5445,
      "определить": 5446,
      "определенного": 5447,
      "тров": 5448,
      "трое": 5449,
      "трожь": 5450,
      "трией": 5451,
      "тривание": 5452,
      "трижды": 5453,
      "тридца": 5454,
      "нарцисси": 5455,
      "настояла": 5456,
      "настоящих": 5457,
      "настоящим": 5458,
      "полюбив": 5459,
      "полюбили": 5460,
      "полюбите": 5461,
      "постоянная": 5462,
      "постоянных": 5463,
      "воспринимать": 5464,
      "воспринимают": 5465,
      "восстанавли": 5466,
      "восхищения": 5467,
      "воспринимаются": 5468,
      "лишься": 5469,
      "готов": 5470,
      "готовы": 5471,
      "готовить": 5472,
      "готовые": 5473,
      "готовит": 5474,
      "готовился": 5475,
      "готовясь": 5476,
      "театр": 5477,
      "сердца": 5478,
      "сервис": 5479,
      "продолжении": 5480,
      "продолжающиеся": 5481,
      "череда": 5482,
      "черепаха": 5483,
      "выбранную": 5484,
      "выбрасывайте": 5485,
      "состояний": 5486,
      "состоялся": 5487,
      "раздражает": 5488,
      "раздражения": 5489,
      "существующие": 5490,
      "хорошие": 5491,
      "характера": 5492,
      "характерен": 5493,
      "алкоголик": 5494,
      "алкоголем": 5495,
      "окружающим": 5496,
      "окружающими": 5497,
      "Люби": 5498,
      "Любой": 5499,
      "Любят": 5500,
      "Любовь": 5501,
      "Сам": 5502,
      "Тирион": 5503,
      "благ": 5504,
      "блаженно": 5505,
      "вторая": 5506,
      "вторых": 5507,
      "встряски": 5508,
      "днями": 5509,
      "зован": 5510,
      "золоту": 5511,
      "зрелом": 5512,
      "зрелости": 5513,
      "ищете": 5514,
      "ощущением": 5515,
      "плечи": 5516,
      "спала": 5517,
      "спасение": 5518,
      "спасаться": 5519,
      "труда": 5520,
      "трудно": 5521,
      "трудового": 5522,
      "удается": 5523,
      "удалась": 5524,
      "хватит": 5525,
      "шкам": 5526,
      "подавить": 5527,
      "подарок": 5528,
      "подавлен": 5529,
      "подавлена": 5530,
      "подоконнике": 5531,
      "поверит": 5532,
      "поверить": 5533,
      "поведен": 5534,
      "рованно": 5535,
      "решал": 5536,
      "решат": 5537,
      "решая": 5538,
      "решает": 5539,
      "мирах": 5540,
      "соцсете": 5541,
      "стороной": 5542,
      "сторонник": 5543,
      "развивать": 5544,
      "развиваться": 5545,
      "развития": 5546,
      "развитие": 5547,
      "развитием": 5548,
      "будние": 5549,
      "будущем": 5550,
      "будущий": 5551,
      "чувствуя": 5552,
      "эмоциональную": 5553,
      "получаете": 5554,
      "ственный": 5555,
      "ственным": 5556,
      "ственной": 5557,
      "специальность": 5558,
      "специальности": 5559,
      "внутреннее": 5560,
      "внутренний": 5561,
      "внутренних": 5562,
      "внутренним": 5563,
      "красив": 5564,
      "красивая": 5565,
      "красивые": 5566,
      "красивых": 5567,
      "осознаете": 5568,
      "ущербно": 5569,
      "ущербна": 5570,
      "ущербность": 5571,
      "ущербности": 5572,
      "Раздражитель": 5573,
      "реализоваться": 5574,
      "реализовалась": 5575,
      "Доза": 5576,
      "Дома": 5577,
      "Дорогие": 5578,
      "Создать": 5579,
      "враг": 5580,
      "врач": 5581,
      "врачей": 5582,
      "врачами": 5583,
      "вшиеся": 5584,
      "вшийся": 5585,
      "границей": 5586,
      "грудь": 5587,
      "грузя": 5588,
      "грустно": 5589,
      "глубь": 5590,
      "глубине": 5591,
      "ждаетесь": 5592,
      "здоровая": 5593,
      "здоровые": 5594,
      "здоровых": 5595,
      "здорового": 5596,
      "здоровыми": 5597,
      "здоровья": 5598,
      "кварти": 5599,
      "кватна": 5600,
      "квалифици": 5601,
      "крытым": 5602,
      "метро": 5603,
      "метров": 5604,
      "нсмитте": 5605,
      "святое": 5606,
      "связаны": 5607,
      "слышу": 5608,
      "уважать": 5609,
      "уважение": 5610,
      "уважением": 5611,
      "уважайте": 5612,
      "усиливает": 5613,
      "хлопьях": 5614,
      "эффект": 5615,
      "эффекта": 5616,
      "низм": 5617,
      "низкую": 5618,
      "рациональная": 5619,
      "рациональным": 5620,
      "рационализация": 5621,
      "рационализируя": 5622,
      "стыда": 5623,
      "стыдно": 5624,
      "поймет": 5625,
      "пойдем": 5626,
      "потерям": 5627,
      "потерять": 5628,
      "потеряет": 5629,
      "потеряла": 5630,
      "потерянный": 5631,
      "ванность": 5632,
      "результате": 5633,
      "результаты": 5634,
      "результатив": 5635,
      "результатов": 5636,
      "моими": 5637,
      "достижимо": 5638,
      "заточена": 5639,
      "занимается": 5640,
      "занимаются": 5641,
      "занимающие": 5642,
      "выяснить": 5643,
      "выясняются": 5644,
      "лезь": 5645,
      "лезть": 5646,
      "лезно": 5647,
      "сильного": 5648,
      "мужем": 5649,
      "мужественно": 5650,
      "обижаться": 5651,
      "кинотеатре": 5652,
      "кинотеатра": 5653,
      "киноактеры": 5654,
      "киносеан": 5655,
      "ставляете": 5656,
      "писателей": 5657,
      "детишкам": 5658,
      "переживая": 5659,
      "переживала": 5660,
      "переживают": 5661,
      "переживаний": 5662,
      "поддержать": 5663,
      "поддержку": 5664,
      "поддерживали": 5665,
      "психологам": 5666,
      "большого": 5667,
      "возражений": 5668,
      "стройнее": 5669,
      "пьютерная": 5670,
      "пьянство": 5671,
      "пьяницы": 5672,
      "получит": 5673,
      "получить": 5674,
      "получится": 5675,
      "получилось": 5676,
      "радостью": 5677,
      "классника": 5678,
      "классной": 5679,
      "наркологов": 5680,
      "наркотики": 5681,
      "серьезный": 5682,
      "серьезных": 5683,
      "характерно": 5684,
      "характерны": 5685,
      "характерные": 5686,
      "характерный": 5687,
      "Самодиагности": 5688,
      "соцсети": 5689,
      "соцсетям": 5690,
      "удовлетворяется": 5691,
      "удовлетворять": 5692,
      "Представь": 5693,
      "Предположим": 5694,
      "Представляете": 5695,
      "Там": 5696,
      "Такого": 5697,
      "Такие": 5698,
      "Такое": 5699,
      "Таким": 5700,
      "ближе": 5701,
      "ближай": 5702,
      "днит": 5703,
      "дники": 5704,
      "дворах": 5705,
      "ективное": 5706,
      "остановить": 5707,
      "остановились": 5708,
      "скрю": 5709,
      "сутки": 5710,
      "худеет": 5711,
      "цыпочка": 5712,
      "четко": 5713,
      "четкие": 5714,
      "четвертая": 5715,
      "школьников": 5716,
      "шковец": 5717,
      "несчастными": 5718,
      "называемы": 5719,
      "понял": 5720,
      "поняла": 5721,
      "понятия": 5722,
      "понятным": 5723,
      "понятие": 5724,
      "позвонила": 5725,
      "позволила": 5726,
      "позволяла": 5727,
      "терапия": 5728,
      "мозг": 5729,
      "мозга": 5730,
      "мозге": 5731,
      "мозгов": 5732,
      "далее": 5733,
      "заслуживают": 5734,
      "девочка": 5735,
      "девочек": 5736,
      "чернень": 5737,
      "черствый": 5738,
      "черкивает": 5739,
      "живучи": 5740,
      "живущих": 5741,
      "живущая": 5742,
      "обещал": 5743,
      "обернуться": 5744,
      "обеспечить": 5745,
      "отвечу": 5746,
      "отвечать": 5747,
      "ответы": 5748,
      "ответили": 5749,
      "менам": 5750,
      "стараюсь": 5751,
      "стабильная": 5752,
      "стабильной": 5753,
      "партнеров": 5754,
      "Понимать": 5755,
      "компания": 5756,
      "компанию": 5757,
      "говорчивостью": 5758,
      "третья": 5759,
      "третьих": 5760,
      "цепция": 5761,
      "перестану": 5762,
      "перестанем": 5763,
      "перестаньте": 5764,
      "большим": 5765,
      "большинстве": 5766,
      "спокойно": 5767,
      "спокойны": 5768,
      "спокойные": 5769,
      "спокойных": 5770,
      "слушался": 5771,
      "играл": 5772,
      "играет": 5773,
      "интересное": 5774,
      "образованием": 5775,
      "образовались": 5776,
      "образовалось": 5777,
      "бросает": 5778,
      "бросается": 5779,
      "зарабатывать": 5780,
      "зарабатывает": 5781,
      "зарабатывание": 5782,
      "зарабатывают": 5783,
      "зарабатываю": 5784,
      "объяснять": 5785,
      "объяснят": 5786,
      "объяснили": 5787,
      "объясняют": 5788,
      "объясняю": 5789,
      "нормальное": 5790,
      "волнения": 5791,
      "настоящее": 5792,
      "вариантов": 5793,
      "благосостоянии": 5794,
      "ощутите": 5795,
      "ощущал": 5796,
      "ощущаете": 5797,
      "специалисту": 5798,
      "специализацией": 5799,
      "специалистам": 5800,
      "ДОЛЖНО": 5801,
      "ДОЛЖНЫ": 5802,
      "преодолел": 5803,
      "преодолеть": 5804,
      "Вас": 5805,
      "Ваша": 5806,
      "Вопросы": 5807,
      "Возможно": 5808,
      "Войны": 5809,
      "Другие": 5810,
      "Других": 5811,
      "КАЛО": 5812,
      "Мечта": 5813,
      "Мешают": 5814,
      "Первая": 5815,
      "Правда": 5816,
      "Правила": 5817,
      "Ребенок": 5818,
      "Себя": 5819,
      "Секс": 5820,
      "Сериал": 5821,
      "ХОДИ": 5822,
      "Хороше": 5823,
      "Холостяк": 5824,
      "Чек": 5825,
      "вленному": 5826,
      "ехать": 5827,
      "ехаться": 5828,
      "идее": 5829,
      "идем": 5830,
      "идею": 5831,
      "идеальная": 5832,
      "нюю": 5833,
      "опасно": 5834,
      "опаской": 5835,
      "очереди": 5836,
      "плюсы": 5837,
      "плюсов": 5838,
      "спрыгнет": 5839,
      "сплетни": 5840,
      "свалилось": 5841,
      "свадьбу": 5842,
      "свалишься": 5843,
      "уроки": 5844,
      "уроков": 5845,
      "участников": 5846,
      "успехи": 5847,
      "успевает": 5848,
      "факт": 5849,
      "факторы": 5850,
      "щенное": 5851,
      "щенности": 5852,
      "экску": 5853,
      "эксперимен": 5854,
      "ющей": 5855,
      "невероятные": 5856,
      "негативно": 5857,
      "непременно": 5858,
      "непрестижной": 5859,
      "невозможного": 5860,
      "найдется": 5861,
      "наука": 5862,
      "научно": 5863,
      "научный": 5864,
      "научусь": 5865,
      "наружных": 5866,
      "нарушение": 5867,
      "напрягает": 5868,
      "наличия": 5869,
      "потренирова": 5870,
      "потребность": 5871,
      "рожок": 5872,
      "рождены": 5873,
      "роман": 5874,
      "романе": 5875,
      "романо": 5876,
      "родить": 5877,
      "родила": 5878,
      "родился": 5879,
      "родившийся": 5880,
      "сексе": 5881,
      "секса": 5882,
      "семейного": 5883,
      "семейном": 5884,
      "ложка": 5885,
      "ложными": 5886,
      "ложную": 5887,
      "еные": 5888,
      "делите": 5889,
      "деликатность": 5890,
      "материнство": 5891,
      "материнства": 5892,
      "проигрыше": 5893,
      "проигрывается": 5894,
      "житейский": 5895,
      "лечить": 5896,
      "лечите": 5897,
      "лечится": 5898,
      "женится": 5899,
      "женился": 5900,
      "женились": 5901,
      "женихов": 5902,
      "жертв": 5903,
      "жертва": 5904,
      "жертвы": 5905,
      "жертвой": 5906,
      "симптом": 5907,
      "обмануть": 5908,
      "обманули": 5909,
      "обходителен": 5910,
      "виноват": 5911,
      "отказываю": 5912,
      "отказывают": 5913,
      "отказывается": 5914,
      "отказываешься": 5915,
      "руководству": 5916,
      "приятно": 5917,
      "причин": 5918,
      "причине": 5919,
      "причиной": 5920,
      "причиняет": 5921,
      "признаки": 5922,
      "признаков": 5923,
      "своеобразная": 5924,
      "работник": 5925,
      "работниками": 5926,
      "параметров": 5927,
      "жалобы": 5928,
      "жалость": 5929,
      "жалости": 5930,
      "жалобами": 5931,
      "компьютере": 5932,
      "компьютера": 5933,
      "комбикормо": 5934,
      "комбикорм": 5935,
      "прекрасно": 5936,
      "прекрасной": 5937,
      "страхах": 5938,
      "дружбу": 5939,
      "дружба": 5940,
      "исключающих": 5941,
      "конкретные": 5942,
      "конкретного": 5943,
      "конкретных": 5944,
      "конкретной": 5945,
      "целовали": 5946,
      "целовались": 5947,
      "подробности": 5948,
      "подросток": 5949,
      "поднимал": 5950,
      "поднимать": 5951,
      "поднимает": 5952,
      "поднимаете": 5953,
      "тяжелый": 5954,
      "тяжелые": 5955,
      "хорошего": 5956,
      "хорошести": 5957,
      "бабушкой": 5958,
      "собственных": 5959,
      "собственным": 5960,
      "долгом": 5961,
      "терпел": 5962,
      "терпение": 5963,
      "Компьютерная": 5964,
      "последствий": 5965,
      "последнюю": 5966,
      "ситуациях": 5967,
      "ситуациями": 5968,
      "бросить": 5969,
      "бросите": 5970,
      "борьбу": 5971,
      "борьба": 5972,
      "объективно": 5973,
      "объективного": 5974,
      "психологический": 5975,
      "мечтает": 5976,
      "красоты": 5977,
      "существование": 5978,
      "алкоголизм": 5979,
      "алкоголизмом": 5980,
      "хватать": 5981,
      "Советую": 5982,
      "Советскими": 5983,
      "эффективная": 5984,
      "эффективен": 5985,
      "нервничают": 5986,
      "Женщине": 5987,
      "Женщину": 5988,
      "особенности": 5989,
      "особенностью": 5990,
      "физически": 5991,
      "физиологи": 5992,
      "пользуются": 5993,
      "российский": 5994,
      "российские": 5995,
      "Бороться": 5996,
      "Болту": 5997,
      "Более": 5998,
      "Будь": 5999,
      "ВКонтак": 6000,
      "Говори": 6001,
      "Гоголя": 6002,
      "Головы": 6003,
      "Делай": 6004,
      "Делать": 6005,
      "Делайте": 6006,
      "ЕГЭ": 6007,
      "ЕГДА": 6008,
      "ЕТЕ": 6009,
      "Жизненный": 6010,
      "Желая": 6011,
      "Институт": 6012,
      "Инвги": 6013,
      "Ингви": 6014,
      "Личность": 6015,
      "НАДО": 6016,
      "НЕОБ": 6017,
      "Сколько": 6018,
      "адрес": 6019,
      "адреса": 6020,
      "аналити": 6021,
      "аналогичный": 6022,
      "бьется": 6023,
      "бьются": 6024,
      "близкого": 6025,
      "близкие": 6026,
      "близких": 6027,
      "влияющие": 6028,
      "длины": 6029,
      "длительные": 6030,
      "днующих": 6031,
      "дцами": 6032,
      "двойки": 6033,
      "двойной": 6034,
      "двойную": 6035,
      "истфак": 6036,
      "истязают": 6037,
      "историю": 6038,
      "историка": 6039,
      "исторические": 6040,
      "ктабельные": 6041,
      "ллз": 6042,
      "окна": 6043,
      "петентность": 6044,
      "праздновать": 6045,
      "праздники": 6046,
      "празднующих": 6047,
      "сдал": 6048,
      "сдавать": 6049,
      "сдаем": 6050,
      "скука": 6051,
      "скучно": 6052,
      "сделав": 6053,
      "сделают": 6054,
      "сделайте": 6055,
      "сцена": 6056,
      "сфера": 6057,
      "сферу": 6058,
      "сферы": 6059,
      "твердит": 6060,
      "твердая": 6061,
      "универсальный": 6062,
      "убивают": 6063,
      "убивается": 6064,
      "упорно": 6065,
      "упорный": 6066,
      "упорству": 6067,
      "нениям": 6068,
      "неудачами": 6069,
      "неудавшей": 6070,
      "неудачном": 6071,
      "неудовлетворенность": 6072,
      "неудовлетворение": 6073,
      "неудовлетворенные": 6074,
      "нестабильная": 6075,
      "необходимо": 6076,
      "необходима": 6077,
      "необходимость": 6078,
      "неприятно": 6079,
      "неприятности": 6080,
      "неприятное": 6081,
      "тьев": 6082,
      "носит": 6083,
      "носить": 6084,
      "носите": 6085,
      "надеется": 6086,
      "надеются": 6087,
      "надежным": 6088,
      "находите": 6089,
      "находиться": 6090,
      "находится": 6091,
      "настроений": 6092,
      "равнодуши": 6093,
      "стремления": 6094,
      "стрелялок": 6095,
      "появится": 6096,
      "появятся": 6097,
      "появились": 6098,
      "покупает": 6099,
      "поменяю": 6100,
      "поменять": 6101,
      "поменялись": 6102,
      "родные": 6103,
      "родство": 6104,
      "рефлекторная": 6105,
      "годами": 6106,
      "голос": 6107,
      "голоса": 6108,
      "голову": 6109,
      "кататься": 6110,
      "катается": 6111,
      "катастрофа": 6112,
      "моменты": 6113,
      "лагерь": 6114,
      "ложится": 6115,
      "логам": 6116,
      "боялся": 6117,
      "замечу": 6118,
      "зацепить": 6119,
      "заценили": 6120,
      "зацепиться": 6121,
      "завязать": 6122,
      "завязано": 6123,
      "завязавшиеся": 6124,
      "зарплата": 6125,
      "зарплату": 6126,
      "зарплатой": 6127,
      "максимум": 6128,
      "маленьком": 6129,
      "мальчики": 6130,
      "проводят": 6131,
      "проведете": 6132,
      "проверить": 6133,
      "проверенный": 6134,
      "профессии": 6135,
      "ческому": 6136,
      "высокой": 6137,
      "высокие": 6138,
      "жестокий": 6139,
      "жестокость": 6140,
      "жестокости": 6141,
      "сидение": 6142,
      "сиделки": 6143,
      "мировая": 6144,
      "обрели": 6145,
      "обвиняют": 6146,
      "обвинений": 6147,
      "обвинениям": 6148,
      "обнимаются": 6149,
      "обнимались": 6150,
      "обнимашек": 6151,
      "общая": 6152,
      "диагнозов": 6153,
      "отцу": 6154,
      "отсутствии": 6155,
      "отдохнешь": 6156,
      "сообщений": 6157,
      "сомнений": 6158,
      "сомневаются": 6159,
      "сомневаясь": 6160,
      "согласен": 6161,
      "согласится": 6162,
      "соглашаетесь": 6163,
      "социальная": 6164,
      "социальные": 6165,
      "социальный": 6166,
      "местами": 6167,
      "мешают": 6168,
      "лярность": 6169,
      "лярным": 6170,
      "жизненную": 6171,
      "разведись": 6172,
      "разведусь": 6173,
      "разбирает": 6174,
      "известном": 6175,
      "парни": 6176,
      "нужна": 6177,
      "Полного": 6178,
      "Полнит": 6179,
      "чужую": 6180,
      "чужом": 6181,
      "чужому": 6182,
      "практически": 6183,
      "контакта": 6184,
      "следует": 6185,
      "следующим": 6186,
      "следующее": 6187,
      "целиком": 6188,
      "путевку": 6189,
      "пуститься": 6190,
      "расстройство": 6191,
      "расстройств": 6192,
      "расстройству": 6193,
      "рассуждать": 6194,
      "относится": 6195,
      "относился": 6196,
      "относитесь": 6197,
      "времени": 6198,
      "реагировать": 6199,
      "планеты": 6200,
      "планетяне": 6201,
      "насладиться": 6202,
      "психиатры": 6203,
      "психиатров": 6204,
      "психиатрией": 6205,
      "любовница": 6206,
      "любовницы": 6207,
      "любовницей": 6208,
      "справляюсь": 6209,
      "трагедией": 6210,
      "обожал": 6211,
      "обожаю": 6212,
      "обожания": 6213,
      "филологи": 6214,
      "филологов": 6215,
      "философо": 6216,
      "каждым": 6217,
      "интересны": 6218,
      "интереснее": 6219,
      "предлагал": 6220,
      "предлагает": 6221,
      "предлагают": 6222,
      "личностные": 6223,
      "личностная": 6224,
      "личностный": 6225,
      "компромиссные": 6226,
      "Отвечать": 6227,
      "Ответьте": 6228,
      "Отвечаю": 6229,
      "недостаточно": 6230,
      "недостаток": 6231,
      "недостатками": 6232,
      "домашнего": 6233,
      "домашний": 6234,
      "домашним": 6235,
      "зависимостью": 6236,
      "крепкие": 6237,
      "крепкая": 6238,
      "кредита": 6239,
      "кредиты": 6240,
      "привычного": 6241,
      "воспитали": 6242,
      "воспитательницы": 6243,
      "театральные": 6244,
      "театральных": 6245,
      "депрессия": 6246,
      "депрессией": 6247,
      "депрессивного": 6248,
      "противоречи": 6249,
      "Тибете": 6250,
      "встречи": 6251,
      "встречаться": 6252,
      "встретиться": 6253,
      "подавленном": 6254,
      "подавленность": 6255,
      "подавленности": 6256,
      "подозревать": 6257,
      "подозревая": 6258,
      "подозреваю": 6259,
      "друзья": 6260,
      "граждан": 6261,
      "глубокие": 6262,
      "глубоким": 6263,
      "глубокую": 6264,
      "сериала": 6265,
      "сериалов": 6266,
      "сериалами": 6267,
      "отвечаю": 6268,
      "отвечает": 6269,
      "отвечают": 6270,
      "изменился": 6271,
      "КАКОЙ": 6272,
      "Перехочется": 6273,
      "Переписка": 6274,
      "Переговоры": 6275,
      "ХОЧУ": 6276,
      "Человеку": 6277,
      "организм": 6278,
      "симптомов": 6279,
      "виноватых": 6280,
      "руководителей": 6281,
      "Компромиссный": 6282,
      "взрослые": 6283,
      "взрослый": 6284,
      "взрослых": 6285,
      "мотивацией": 6286,
      "талантов": 6287,
      "заканчивается": 6288,
      "миллионы": 6289,
      "миллионеров": 6290,
      "миллионеры": 6291,
      "обстоятельствам": 6292,
      "!».)": 6293,
      ")»…": 6294,
      "АВИЛ": 6295,
      "Было": 6296,
      "Бывает": 6297,
      "ВСЕГДА": 6298,
      "ДИМСЯ": 6299,
      "Девочка": 6300,
      "Девушка": 6301,
      "Европе": 6302,
      "Европа": 6303,
      "Лопес": 6304,
      "Логика": 6305,
      "МОЕ": 6306,
      "Михаил": 6307,
      "Миллз": 6308,
      "НИЧЕГ": 6309,
      "НИКАКОЙ": 6310,
      "ОБЪЕК": 6311,
      "Объяс": 6312,
      "Общение": 6313,
      "ПРО": 6314,
      "ПРАВИЛ": 6315,
      "Психика": 6316,
      "Психологи": 6317,
      "Сидеть": 6318,
      "Сильнее": 6319,
      "Тома": 6320,
      "Только": 6321,
      "Цель": 6322,
      "Целое": 6323,
      "взаимо": 6324,
      "взаперти": 6325,
      "впасть": 6326,
      "впадают": 6327,
      "вспомните": 6328,
      "вспомнить": 6329,
      "влюбляется": 6330,
      "влюбленность": 6331,
      "впитают": 6332,
      "впиталась": 6333,
      "естественно": 6334,
      "естественным": 6335,
      "зритель": 6336,
      "земле": 6337,
      "землей": 6338,
      "здравому": 6339,
      "здрасьте": 6340,
      "истерит": 6341,
      "ориенти": 6342,
      "опытный": 6343,
      "основания": 6344,
      "оказался": 6345,
      "оказалось": 6346,
      "оглядки": 6347,
      "оглядкой": 6348,
      "прыгают": 6349,
      "прыщики": 6350,
      "свете": 6351,
      "съел": 6352,
      "съехаться": 6353,
      "сравнений": 6354,
      "сравнимые": 6355,
      "смартфон": 6356,
      "смеяться": 6357,
      "смеемся": 6358,
      "снимать": 6359,
      "снимает": 6360,
      "спите": 6361,
      "список": 6362,
      "света": 6363,
      "светить": 6364,
      "среднего": 6365,
      "средствам": 6366,
      "трется": 6367,
      "умный": 6368,
      "умным": 6369,
      "ууух": 6370,
      "ученые": 6371,
      "уколы": 6372,
      "устаю": 6373,
      "усталым": 6374,
      "убежденность": 6375,
      "убедительны": 6376,
      "узнав": 6377,
      "узнаваемы": 6378,
      "ужасно": 6379,
      "ужасное": 6380,
      "устранить": 6381,
      "устраиваются": 6382,
      "футболе": 6383,
      "футбол": 6384,
      "фону": 6385,
      "тоталита": 6386,
      "тотального": 6387,
      "несговорчивостью": 6388,
      "нелюбимой": 6389,
      "нелюбимого": 6390,
      "несчастлив": 6391,
      "несчастливо": 6392,
      "начну": 6393,
      "начнет": 6394,
      "намекать": 6395,
      "настолько": 6396,
      "настораживает": 6397,
      "напиваться": 6398,
      "напившись": 6399,
      "навязывать": 6400,
      "навязывают": 6401,
      "наступит": 6402,
      "наступает": 6403,
      "колоду": 6404,
      "колонку": 6405,
      "костьми": 6406,
      "конунг": 6407,
      "конунге": 6408,
      "попроще": 6409,
      "попросту": 6410,
      "поживем": 6411,
      "пожилых": 6412,
      "покинет": 6413,
      "покидая": 6414,
      "попало": 6415,
      "попавших": 6416,
      "попросил": 6417,
      "попросила": 6418,
      "погружаться": 6419,
      "погружается": 6420,
      "посвящена": 6421,
      "посвящать": 6422,
      "поехать": 6423,
      "поехало": 6424,
      "валко": 6425,
      "вашего": 6426,
      "вашему": 6427,
      "вакансии": 6428,
      "вакансию": 6429,
      "ресницы": 6430,
      "гордится": 6431,
      "телевидения": 6432,
      "телефону": 6433,
      "мотаться": 6434,
      "мочалке": 6435,
      "римский": 6436,
      "римские": 6437,
      "холодный": 6438,
      "холодность": 6439,
      "локтя": 6440,
      "доводите": 6441,
      "доводам": 6442,
      "доверять": 6443,
      "доверяете": 6444,
      "договориться": 6445,
      "договорились": 6446,
      "ентируйтесь": 6447,
      "заднем": 6448,
      "забот": 6449,
      "заботами": 6450,
      "запах": 6451,
      "запанико": 6452,
      "защититься": 6453,
      "защищенности": 6454,
      "закончиться": 6455,
      "замужем": 6456,
      "замужества": 6457,
      "заставлять": 6458,
      "заставляют": 6459,
      "заинтересован": 6460,
      "заинтересованы": 6461,
      "маниака": 6462,
      "манипуляции": 6463,
      "магазин": 6464,
      "магазина": 6465,
      "мазохиз": 6466,
      "просьбы": 6467,
      "просьбой": 6468,
      "просыпаться": 6469,
      "проснулся": 6470,
      "проснувшись": 6471,
      "вынуждает": 6472,
      "вынуждены": 6473,
      "животных": 6474,
      "жестко": 6475,
      "мужик": 6476,
      "мужиков": 6477,
      "минусы": 6478,
      "минусов": 6479,
      "обнаружить": 6480,
      "обнаруживает": 6481,
      "видим": 6482,
      "видимо": 6483,
      "любые": 6484,
      "любым": 6485,
      "откался": 6486,
      "отказывать": 6487,
      "отдачи": 6488,
      "отдавать": 6489,
      "отрывайте": 6490,
      "отправляются": 6491,
      "отправляют": 6492,
      "отпуск": 6493,
      "отпускает": 6494,
      "отвергают": 6495,
      "отличие": 6496,
      "отличием": 6497,
      "открыт": 6498,
      "открывает": 6499,
      "отчаяния": 6500,
      "отчаяние": 6501,
      "прибегать": 6502,
      "прибегайте": 6503,
      "принял": 6504,
      "принятием": 6505,
      "приветлив": 6506,
      "прилагая": 6507,
      "прилагают": 6508,
      "прикосновений": 6509,
      "сопротивляется": 6510,
      "сопротивление": 6511,
      "мерилом": 6512,
      "размышляя": 6513,
      "издеваться": 6514,
      "издевательство": 6515,
      "избавиться": 6516,
      "избавляются": 6517,
      "онлайн": 6518,
      "онлайне": 6519,
      "пахать": 6520,
      "знакомый": 6521,
      "знакомство": 6522,
      "знакомств": 6523,
      "меньшей": 6524,
      "тупое": 6525,
      "жалеть": 6526,
      "жалеете": 6527,
      "Подчеркивает": 6528,
      "рядышком": 6529,
      "другая": 6530,
      "шансы": 6531,
      "шантажа": 6532,
      "шатко": 6533,
      "Нормально": 6534,
      "Нормальных": 6535,
      "человеческий": 6536,
      "человеческим": 6537,
      "суицид": 6538,
      "суицидальные": 6539,
      "супругу": 6540,
      "супругами": 6541,
      "Невротики": 6542,
      "Невротику": 6543,
      "интернет": 6544,
      "интернета": 6545,
      "информации": 6546,
      "информацией": 6547,
      "мыслью": 6548,
      "пустота": 6549,
      "пустоты": 6550,
      "тягость": 6551,
      "тяготит": 6552,
      "расставание": 6553,
      "расставания": 6554,
      "расплата": 6555,
      "расплачиваться": 6556,
      "события": 6557,
      "событий": 6558,
      "возможный": 6559,
      "возникает": 6560,
      "возникают": 6561,
      "возвращаются": 6562,
      "возвращаться": 6563,
      "примерочную": 6564,
      "примерочной": 6565,
      "случится": 6566,
      "случилась": 6567,
      "Надеясь": 6568,
      "Надеюсь": 6569,
      "стесняться": 6570,
      "стесняется": 6571,
      "стереотипы": 6572,
      "стереотипные": 6573,
      "плакат": 6574,
      "плакаться": 6575,
      "строится": 6576,
      "строительства": 6577,
      "безусловной": 6578,
      "Проблема": 6579,
      "Проблему": 6580,
      "помощник": 6581,
      "помощником": 6582,
      "родителями": 6583,
      "радостей": 6584,
      "радостная": 6585,
      "каждое": 6586,
      "каждого": 6587,
      "обратная": 6588,
      "обратного": 6589,
      "конфликтов": 6590,
      "конфликтологам": 6591,
      "тревожное": 6592,
      "тревожности": 6593,
      "невротикам": 6594,
      "генерируют": 6595,
      "генетике": 6596,
      "кризиса": 6597,
      "кризисом": 6598,
      "представления": 6599,
      "представитель": 6600,
      "представляю": 6601,
      "представляют": 6602,
      "способностях": 6603,
      "способностями": 6604,
      "советчик": 6605,
      "советчиков": 6606,
      "Вернее": 6607,
      "Вернетесь": 6608,
      "недовольны": 6609,
      "недовольство": 6610,
      "болезней": 6611,
      "болезненные": 6612,
      "креслах": 6613,
      "положительные": 6614,
      "положительным": 6615,
      "вырабатывает": 6616,
      "вырабатываются": 6617,
      "определенных": 6618,
      "определенным": 6619,
      "смотрел": 6620,
      "смотрелась": 6621,
      "показать": 6622,
      "показательно": 6623,
      "продолжают": 6624,
      "продолжаются": 6625,
      "раздражители": 6626,
      "раздражителям": 6627,
      "алкоголика": 6628,
      "алкоголиков": 6629,
      "зовут": 6630,
      "подобного": 6631,
      "подобному": 6632,
      "поведение": 6633,
      "поведением": 6634,
      "Развивать": 6635,
      "Развивайте": 6636,
      "достигнутый": 6637,
      "классах": 6638,
      "Предлагаю": 6639,
      "Предлагаете": 6640,
      "агрессии": 6641,
      "агрессия": 6642,
      "склоняются": 6643,
      "склонность": 6644,
      "партнерах": 6645,
      "формируется": 6646,
      "формируются": 6647,
      "ежеминутно": 6648,
      "ежеминутного": 6649,
      "офисном": 6650,
      "опасный": 6651,
      "опасными": 6652,
      "спутника": 6653,
      "спутником": 6654,
      "экзамен": 6655,
      "экзаменам": 6656,
      "торгую": 6657,
      "торгующей": 6658,
      "непрерывно": 6659,
      "непрерывные": 6660,
      "сексуальная": 6661,
      "параллельная": 6662,
      "параллельных": 6663,
      "компьютерные": 6664,
      "претендовать": 6665,
      "претендую": 6666,
      "покупки": 6667,
      "покупке": 6668,
      "рефлексии": 6669,
      "рефлексируя": 6670,
      "болтаться": 6671,
      "болтается": 6672,
      "максимальная": 6673,
      "максимальный": 6674,
      "провоцируя": 6675,
      "профессию": 6676,
      "профессионально": 6677,
      "диагностировали": 6678,
      "сообществах": 6679,
      "путешествие": 6680,
      "путешествовать": 6681,
      "наслаждаться": 6682,
      "наслаждаются": 6683,
      "депрессует": 6684,
      "депрессуете": 6685,
      "метаболизм": 6686,
      "метаболизма": 6687,
      "ХОЧЕТСЯ": 6688,
      "органически": 6689,
      "талантлив": 6690,
      "Египетские": 6691,
      "Тревоги": 6692,
      "Тревожиться": 6693,
      "грезила": 6694,
      "грезило": 6695,
      "ожиданиями": 6696,
      "сформулировать": 6697,
      "сформулированы": 6698,
      "ультимату": 6699,
      "умудряются": 6700,
      "умудряетесь": 6701,
      "насыщенной": 6702,
      "секретарше": 6703,
      "секретаршах": 6704,
      "виртуальном": 6705,
      "виртуальному": 6706,
      "приспосабливаться": 6707,
      "приспосабливаются": 6708,
      "бесконечное": 6709,
      "разочарование": 6710,
      "разочарованием": 6711,
      "гармонично": 6712,
      "гармоничные": 6713,
      "гарантировать": 6714,
      "гарантирую": 6715,
      "индивидуальность": 6716,
      "индивидуальности": 6717,
      "перспективы": 6718,
      "перспективно": 6719,
      "офтальмологию": 6720,
      "офтальмология": 6721,
      "Inst": 6722,
      "Skype": 6723,
      "What": 6724,
      "agram": 6725,
      "all": 6726,
      "clusiv": 6727,
      "inclusiv": 6728,
      "sApp": 6729,
      "Африки": 6730,
      "Анамнез": 6731,
      "Азии": 6732,
      "Аллена": 6733,
      "Барабас": 6734,
      "Берите": 6735,
      "Братьев": 6736,
      "Бросна": 6737,
      "Бледнит": 6738,
      "Безопасный": 6739,
      "ВОВРЕ": 6740,
      "Виктор": 6741,
      "Вьетнаме": 6742,
      "Внешность": 6743,
      "Внимание": 6744,
      "Включая": 6745,
      "ВНЕШНО": 6746,
      "ГЛЯДЯ": 6747,
      "ГОРЕ": 6748,
      "Гришковец": 6749,
      "Главное": 6750,
      "Джон": 6751,
      "Джекма": 6752,
      "Дискомфорт": 6753,
      "Дженнифе": 6754,
      "Думал": 6755,
      "Евгений": 6756,
      "Ерунда": 6757,
      "Жена": 6758,
      "Знаете": 6759,
      "Земфира": 6760,
      "Зигмунд": 6761,
      "Здоровые": 6762,
      "ЗАВТРА": 6763,
      "ЗЕРКАЛО": 6764,
      "ИТСЯ": 6765,
      "Йоко": 6766,
      "КРОМЕ": 6767,
      "Кривая": 6768,
      "Круза": 6769,
      "Концепция": 6770,
      "Кидман": 6771,
      "Культивировать": 6772,
      "Ладно": 6773,
      "Ленина": 6774,
      "Леннон": 6775,
      "Ланнистер": 6776,
      "Лучше": 6777,
      "Мама": 6778,
      "Многие": 6779,
      "Монро": 6780,
      "Маккарт": 6781,
      "Многочасо": 6782,
      "Мужчины": 6783,
      "Маргарет": 6784,
      "МИСИСе": 6785,
      "Нравится": 6786,
      "Очень": 6787,
      "Ориентируйтесь": 6788,
      "Оставайтесь": 6789,
      "Обидно": 6790,
      "Одноклассника": 6791,
      "Обращаясь": 6792,
      "Пирса": 6793,
      "Плохо": 6794,
      "ПОЛУЧ": 6795,
      "Пальцами": 6796,
      "России": 6797,
      "РОЛИ": 6798,
      "Рукоприкла": 6799,
      "СТЬ": 6800,
      "Сфоткался": 6801,
      "Стоп": 6802,
      "Свадьба": 6803,
      "Свои": 6804,
      "Смотри": 6805,
      "Старит": 6806,
      "Слевина": 6807,
      "Собственно": 6808,
      "Счастли": 6809,
      "Спасибо": 6810,
      "Сделайте": 6811,
      "Спина": 6812,
      "Сейчас": 6813,
      "Смысл": 6814,
      "Считается": 6815,
      "Страхи": 6816,
      "Существует": 6817,
      "Турцию": 6818,
      "Тэтчер": 6819,
      "Творожок": 6820,
      "ТОЛЬКО": 6821,
      "Тортила": 6822,
      "ТВУЕТЕ": 6823,
      "ТИВНАЯ": 6824,
      "Уверенным": 6825,
      "УВИДИМСЯ": 6826,
      "Франкл": 6827,
      "Хизер": 6828,
      "Харрель": 6829,
      "Хваленый": 6830,
      "Целая": 6831,
      "Часто": 6832,
      "Чушь": 6833,
      "ЧУВСТВУЕТЕ": 6834,
      "Шансы": 6835,
      "Эгоист": 6836,
      "абстракт": 6837,
      "амбивален": 6838,
      "аутизм": 6839,
      "анекдо": 6840,
      "апофеоз": 6841,
      "адекватна": 6842,
      "априори": 6843,
      "анархии": 6844,
      "автозага": 6845,
      "американс": 6846,
      "бдителен": 6847,
      "всё": 6848,
      "власти": 6849,
      "вдопотеря": 6850,
      "врубаете": 6851,
      "внушать": 6852,
      "впитывает": 6853,
      "вправе": 6854,
      "вслух": 6855,
      "вплоть": 6856,
      "вскоре": 6857,
      "включается": 6858,
      "вполоборота": 6859,
      "вдвоем": 6860,
      "всласть": 6861,
      "вцепляется": 6862,
      "гнев": 6863,
      "громадная": 6864,
      "двигаться": 6865,
      "дремлет": 6866,
      "дéвичьем": 6867,
      "ептить": 6868,
      "единственно": 6869,
      "ерунду": 6870,
      "жужжат": 6871,
      "здесь": 6872,
      "зелье": 6873,
      "инопланетяне": 6874,
      "инициативе": 6875,
      "истинные": 6876,
      "ищите": 6877,
      "инерции": 6878,
      "итальянский": 6879,
      "йливо": 6880,
      "йчивая": 6881,
      "кроются": 6882,
      "клиентам": 6883,
      "клетки": 6884,
      "ктронном": 6885,
      "крюки": 6886,
      "мцев": 6887,
      "орала": 6888,
      "острых": 6889,
      "отец": 6890,
      "охотно": 6891,
      "одеваюсь": 6892,
      "операции": 6893,
      "оправдать": 6894,
      "оценить": 6895,
      "опущенное": 6896,
      "оплачиваем": 6897,
      "ополчился": 6898,
      "осторожный": 6899,
      "опоздает": 6900,
      "описанные": 6901,
      "остервенением": 6902,
      "осваивать": 6903,
      "огромное": 6904,
      "огорчать": 6905,
      "псевдопотеря": 6906,
      "сходном": 6907,
      "смиряются": 6908,
      "свидания": 6909,
      "смысле": 6910,
      "сверлите": 6911,
      "сплошное": 6912,
      "скважины": 6913,
      "схема": 6914,
      "спровоцирует": 6915,
      "угол": 6916,
      "уловить": 6917,
      "улечься": 6918,
      "устойчивая": 6919,
      "упадок": 6920,
      "управлении": 6921,
      "ухищрения": 6922,
      "усугубляет": 6923,
      "упереться": 6924,
      "увольнения": 6925,
      "улучшить": 6926,
      "упрямцев": 6927,
      "умирает": 6928,
      "уровня": 6929,
      "умозрительные": 6930,
      "устроена": 6931,
      "угроз": 6932,
      "фрустрация": 6933,
      "фантасти": 6934,
      "фанатеют": 6935,
      "хрустальной": 6936,
      "художествен": 6937,
      "шпиона": 6938,
      "экономи": 6939,
      "эгоистом": 6940,
      "электронном": 6941,
      "эпистоляр": 6942,
      "энергию": 6943,
      "экране": 6944,
      "юристами": 6945,
      "японский": 6946,
      "язык": 6947,
      "товарищи": 6948,
      "ненависти": 6949,
      "небом": 6950,
      "незакрытым": 6951,
      "непростая": 6952,
      "небеса": 6953,
      "неизбежно": 6954,
      "некомпетентность": 6955,
      "неподходя": 6956,
      "непонимания": 6957,
      "несправедли": 6958,
      "независимых": 6959,
      "ненормальный": 6960,
      "непривычных": 6961,
      "нереализованность": 6962,
      "неполадок": 6963,
      "нешуточно": 6964,
      "невысоким": 6965,
      "несвойственный": 6966,
      "невоспитанным": 6967,
      "неуютно": 6968,
      "невозможным": 6969,
      "неразвитостью": 6970,
      "нечуткий": 6971,
      "норовит": 6972,
      "напоминающая": 6973,
      "населения": 6974,
      "надавила": 6975,
      "наладится": 6976,
      "напрочь": 6977,
      "навык": 6978,
      "навеки": 6979,
      "насиловать": 6980,
      "настаивает": 6981,
      "направление": 6982,
      "наемными": 6983,
      "напоследок": 6984,
      "наживший": 6985,
      "национальная": 6986,
      "насилия": 6987,
      "наследственной": 6988,
      "наполнена": 6989,
      "назойливо": 6990,
      "находка": 6991,
      "набирается": 6992,
      "нагрудном": 6993,
      "написано": 6994,
      "наплюй": 6995,
      "напитки": 6996,
      "нарастает": 6997,
      "навстречу": 6998,
      "ничтожной": 6999,
      "нищие": 7000,
      "растет": 7001,
      "раковине": 7002,
      "рацио": 7003,
      "радует": 7004,
      "колют": 7005,
      "коротка": 7006,
      "коллективные": 7007,
      "косвенно": 7008,
      "котлетой": 7009,
      "порешу": 7010,
      "погодой": 7011,
      "поселяют": 7012,
      "повысить": 7013,
      "побывать": 7014,
      "посочувствовать": 7015,
      "помехи": 7016,
      "победив": 7017,
      "порядок": 7018,
      "популярность": 7019,
      "потянут": 7020,
      "поверхности": 7021,
      "попыток": 7022,
      "постепенно": 7023,
      "построить": 7024,
      "подумайте": 7025,
      "поглаживания": 7026,
      "портрет": 7027,
      "порадовать": 7028,
      "покладисты": 7029,
      "посоветуете": 7030,
      "поисками": 7031,
      "поначалу": 7032,
      "повторяющи": 7033,
      "поощряют": 7034,
      "помирать": 7035,
      "пополам": 7036,
      "постараться": 7037,
      "поодиночке": 7038,
      "повзрослев": 7039,
      "поинтересовался": 7040,
      "поистерить": 7041,
      "поотрывать": 7042,
      "поразмышлять": 7043,
      "познакомились": 7044,
      "поменьше": 7045,
      "потрясающее": 7046,
      "ролики": 7047,
      "роскошные": 7048,
      "важнейший": 7049,
      "волосы": 7050,
      "военная": 7051,
      "вопреки": 7052,
      "восполнить": 7053,
      "воплощения": 7054,
      "воображаемы": 7055,
      "ресторане": 7056,
      "репрессии": 7057,
      "ревности": 7058,
      "респектабельные": 7059,
      "рефераты": 7060,
      "революции": 7061,
      "резюме": 7062,
      "рекомендации": 7063,
      "лишился": 7064,
      "лишаться": 7065,
      "литературу": 7066,
      "липосакции": 7067,
      "гораздо": 7068,
      "государстве": 7069,
      "касаются": 7070,
      "кабинет": 7071,
      "кармане": 7072,
      "кафедра": 7073,
      "каблуки": 7074,
      "каникулы": 7075,
      "категоричности": 7076,
      "серотониновый": 7077,
      "риторические": 7078,
      "тащат": 7079,
      "таблица": 7080,
      "тахикардия": 7081,
      "танчики": 7082,
      "ласковое": 7083,
      "хозяйкой": 7084,
      "лоботомии": 7085,
      "ловишь": 7086,
      "документы": 7087,
      "договорено": 7088,
      "допускайте": 7089,
      "добродетели": 7090,
      "дополнение": 7091,
      "добираться": 7092,
      "дованный": 7093,
      "доставляет": 7094,
      "доказали": 7095,
      "дорастающие": 7096,
      "домочадцами": 7097,
      "дофаминовый": 7098,
      "бодить": 7099,
      "богатых": 7100,
      "больное": 7101,
      "ботокса": 7102,
      "зачатия": 7103,
      "зациклен": 7104,
      "задумываться": 7105,
      "заряжается": 7106,
      "занятия": 7107,
      "затяжной": 7108,
      "забава": 7109,
      "заменяют": 7110,
      "заполнить": 7111,
      "завлекают": 7112,
      "заболевания": 7113,
      "захватывающие": 7114,
      "заподозрить": 7115,
      "заглушить": 7116,
      "заложницей": 7117,
      "запустили": 7118,
      "закрепляться": 7119,
      "засасывает": 7120,
      "займемся": 7121,
      "девизом": 7122,
      "десятку": 7123,
      "дефиците": 7124,
      "деструктивное": 7125,
      "мамины": 7126,
      "макушкой": 7127,
      "матерью": 7128,
      "маечку": 7129,
      "прочесть": 7130,
      "прочие": 7131,
      "простите": 7132,
      "прострацию": 7133,
      "процесса": 7134,
      "простуженным": 7135,
      "простатит": 7136,
      "проходным": 7137,
      "простые": 7138,
      "пробросаешься": 7139,
      "проницают": 7140,
      "протестует": 7141,
      "прохожих": 7142,
      "чениям": 7143,
      "выберет": 7144,
      "высвободить": 7145,
      "выпимши": 7146,
      "выстроились": 7147,
      "вызывающее": 7148,
      "выживал": 7149,
      "выбирают": 7150,
      "выслушав": 7151,
      "выстреливает": 7152,
      "высказыванием": 7153,
      "выстроенные": 7154,
      "выписываются": 7155,
      "лежали": 7156,
      "летописец": 7157,
      "весомые": 7158,
      "величиной": 7159,
      "велосипеде": 7160,
      "жениху": 7161,
      "обрыдла": 7162,
      "облезлой": 7163,
      "обновке": 7164,
      "обсасывание": 7165,
      "типичный": 7166,
      "дикулярным": 7167,
      "диспозиции": 7168,
      "дискомфорт": 7169,
      "диалог": 7170,
      "дискредитированы": 7171,
      "любую": 7172,
      "отнимает": 7173,
      "отслеживать": 7174,
      "отвлечься": 7175,
      "отделении": 7176,
      "отключившись": 7177,
      "отнюдь": 7178,
      "отказаться": 7179,
      "отсидев": 7180,
      "отнесется": 7181,
      "откладывается": 7182,
      "отличаются": 7183,
      "отрицает": 7184,
      "отталкивает": 7185,
      "чихай": 7186,
      "бытует": 7187,
      "приходится": 7188,
      "присказка": 7189,
      "притягивает": 7190,
      "прибавит": 7191,
      "призыв": 7192,
      "прислушивайтесь": 7193,
      "приглашаю": 7194,
      "принадлежали": 7195,
      "приключениям": 7196,
      "приготовила": 7197,
      "прикрывая": 7198,
      "прислушаться": 7199,
      "привязать": 7200,
      "приравнивается": 7201,
      "притаскиваются": 7202,
      "приобретенной": 7203,
      "составленному": 7204,
      "сокращения": 7205,
      "соответствующие": 7206,
      "создадут": 7207,
      "соприкосновение": 7208,
      "содрогаюсь": 7209,
      "солдаты": 7210,
      "самец": 7211,
      "садятся": 7212,
      "шевелится": 7213,
      "сталкивался": 7214,
      "старушке": 7215,
      "бесполезно": 7216,
      "бессильны": 7217,
      "беленькими": 7218,
      "бессонница": 7219,
      "беспокойства": 7220,
      "беглецов": 7221,
      "беспредельщики": 7222,
      "певтов": 7223,
      "периодически": 7224,
      "разговора": 7225,
      "разглядит": 7226,
      "различить": 7227,
      "разводиться": 7228,
      "раздвоенность": 7229,
      "разрушенную": 7230,
      "разновидность": 7231,
      "стихийно": 7232,
      "гиперчувствитель": 7233,
      "изменяет": 7234,
      "изображать": 7235,
      "излечимы": 7236,
      "измотанным": 7237,
      "онкологии": 7238,
      "работодателя": 7239,
      "гангстер": 7240,
      "парятся": 7241,
      "памятник": 7242,
      "пацанов": 7243,
      "Постоянно": 7244,
      "Покончить": 7245,
      "Попробуйте": 7246,
      "коммуникативные": 7247,
      "пресыщенных": 7248,
      "препарат": 7249,
      "превентивно": 7250,
      "презрительное": 7251,
      "чудовищные": 7252,
      "испытывают": 7253,
      "исполненные": 7254,
      "исходные": 7255,
      "искусством": 7256,
      "пирамиды": 7257,
      "пионерском": 7258,
      "пирожном": 7259,
      "самопреодоления": 7260,
      "самоубийства": 7261,
      "самоотверженно": 7262,
      "самодеятельной": 7263,
      "прадедушки": 7264,
      "консультацию": 7265,
      "констатирует": 7266,
      "концепт": 7267,
      "конструктивная": 7268,
      "Норвежский": 7269,
      "судьбой": 7270,
      "сумерки": 7271,
      "субъективное": 7272,
      "психотерапевтов": 7273,
      "психопатология": 7274,
      "Нехватки": 7275,
      "Неосознанно": 7276,
      "Неудовлетворенность": 7277,
      "Недостатка": 7278,
      "скамейке": 7279,
      "тренажерами": 7280,
      "целыми": 7281,
      "целеполаганием": 7282,
      "перебирание": 7283,
      "перенервничал": 7284,
      "переселяются": 7285,
      "подтвердили": 7286,
      "подрастают": 7287,
      "подсматривание": 7288,
      "подписываюсь": 7289,
      "подмостках": 7290,
      "подсаживаются": 7291,
      "инструкции": 7292,
      "инвалид": 7293,
      "инфляцией": 7294,
      "инстаграмы": 7295,
      "ингибитор": 7296,
      "индустрии": 7297,
      "пуговицу": 7298,
      "расписанию": 7299,
      "расслабиться": 7300,
      "рассказывают": 7301,
      "рассчитывал": 7302,
      "хорошенько": 7303,
      "перпендикулярным": 7304,
      "первоочередной": 7305,
      "перетекшие": 7306,
      "неестественно": 7307,
      "собственному": 7308,
      "собачья": 7309,
      "собирается": 7310,
      "возлюбленному": 7311,
      "Наблюдаю": 7312,
      "планировал": 7313,
      "планшетом": 7314,
      "терпящим": 7315,
      "Колизей": 7316,
      "технологий": 7317,
      "безобразно": 7318,
      "безденежье": 7319,
      "безработный": 7320,
      "Проявите": 7321,
      "драгоценного": 7322,
      "фотографии": 7323,
      "последняя": 7324,
      "игнорировали": 7325,
      "Приезжай": 7326,
      "Придерживайтесь": 7327,
      "Примерно": 7328,
      "Приучайте": 7329,
      "Прикосновения": 7330,
      "обобщениям": 7331,
      "фиксируют": 7332,
      "гештальтом": 7333,
      "германском": 7334,
      "критериями": 7335,
      "предпринимающим": 7336,
      "предвкушения": 7337,
      "предполагал": 7338,
      "нейротрансмитте": 7339,
      "Велосипеда": 7340,
      "Всемирной": 7341,
      "антидепрессанты": 7342,
      "взгляды": 7343,
      "взвешенное": 7344,
      "недопустимо": 7345,
      "недоразвитость": 7346,
      "недообследованный": 7347,
      "Карамазовых": 7348,
      "Москвы": 7349,
      "половинчата": 7350,
      "страшненький": 7351,
      "Заблуждаетесь": 7352,
      "Заорганизован": 7353,
      "Рассказываю": 7354,
      "останавливает": 7355,
      "тридцать": 7356,
      "нарциссическому": 7357,
      "восстанавливать": 7358,
      "блаженном": 7359,
      "золотую": 7360,
      "подавлены": 7361,
      "поведенческие": 7362,
      "соцсетей": 7363,
      "грузят": 7364,
      "квартир": 7365,
      "квалифицированно": 7366,
      "эффектами": 7367,
      "результативна": 7368,
      "занимающиеся": 7369,
      "киносеанс": 7370,
      "Самодиагностика": 7371,
      "Представьте": 7372,
      "ближайшую": 7373,
      "скрючены": 7374,
      "цыпочках": 7375,
      "называемые": 7376,
      "девочкам": 7377,
      "черненькими": 7378,
      "ХОДИМО": 7379,
      "Хорошее": 7380,
      "экскурсии": 7381,
      "экспериментально": 7382,
      "негативному": 7383,
      "потренировавшись": 7384,
      "руководствуйтесь": 7385,
      "комбикормов": 7386,
      "физиологию": 7387,
      "Болтун": 7388,
      "ВКонтакте": 7389,
      "Говоришь": 7390,
      "НЕОБХОДИМО": 7391,
      "аналитиками": 7392,
      "неудавшейся": 7393,
      "равнодушия": 7394,
      "стремлениям": 7395,
      "философов": 7396,
      "противоречия": 7397,
      "НИЧЕГО": 7398,
      "ОБЪЕКТИВНАЯ": 7399,
      "Объясню": 7400,
      "ПРАВИЛЬНО": 7401,
      "Психологические": 7402,
      "взаимоисключающих": 7403,
      "ориентир": 7404,
      "тоталитарном": 7405,
      "запаниковать": 7406,
      "маниакально": 7407,
      "мазохизму": 7408,
      "ультиматумы": 7409,
      "Instagram": 7410,
      "WhatsApp": 7411,
      "inclusive": 7412,
      "Броснана": 7413,
      "ВОВРЕМЯ": 7414,
      "ВНЕШНОСТЬ": 7415,
      "Джекмана": 7416,
      "Дженнифер": 7417,
      "Маккартни": 7418,
      "Многочасовое": 7419,
      "Одноклассниках": 7420,
      "ПОЛУЧИТСЯ": 7421,
      "Рукоприкладство": 7422,
      "Счастливое": 7423,
      "Харрельсона": 7424,
      "абстрактного": 7425,
      "амбивалентности": 7426,
      "анекдоте": 7427,
      "автозагара": 7428,
      "американской": 7429,
      "фантастическом": 7430,
      "художественную": 7431,
      "экономический": 7432,
      "эпистолярный": 7433,
      "неподходящей": 7434,
      "несправедлива": 7435,
      "покладистый": 7436,
      "повторяющийся": 7437,
      "воображаемый": 7438,
      "гиперчувствительный": 7439,
      "нейротрансмиттеров": 7440,
      "Заорганизованным": 7441
    },
    "merges": [
      [
        "т",
        "о"
      ],
      [
        "н",
        "е"
      ],
      [
        "т",
        "ь"
      ],
      [
        "н",
        "о"
      ],
      [
        "н",
        "а"
      ],
      [
        "н",
        "и"
      ],
      [
        "р",
        "а"
      ],
      [
        "е",
        "т"
      ],
      [
        "с",
        "т"
      ],
      [
        "к",
        "о"
      ],
      [
        "п",
        "о"
      ],
      [
        "р",
        "о"
      ],
      [
        "в",
        "а"
      ],
      [
        "в",
        "о"
      ],
      [
        "р",
        "е"
      ],
      [
        "л",
        "и"
      ],
      [
        "с",
        "я"
      ],
      [
        "г",
        "о"
      ],
      [
        "т",
        "е"
      ],
      [
        "к",
        "а"
      ],
      [
        "с",
        "е"
      ],
      [
        "ч",
        "то"
      ],
      [
        "м",
        "о"
      ],
      [
        "л",
        "ь"
      ],
      [
        "р",
        "и"
      ],
      [
        "т",
        "а"
      ],
      [
        "д",
        "а"
      ],
      [
        "л",
        "а"
      ],
      [
        "х",
        "о"
      ],
      [
        "л",
        "о"
      ],
      [
        "д",
        "о"
      ],
      [
        "б",
        "о"
      ],
      [
        "е",
        "н"
      ],
      [
        "з",
        "а"
      ],
      [
        "д",
        "е"
      ],
      [
        "м",
        "а"
      ],
      [
        "п",
        "ро"
      ],
      [
        "ч",
        "е"
      ],
      [
        "н",
        "ы"
      ],
      [
        "в",
        "ы"
      ],
      [
        "ж",
        "и"
      ],
      [
        "л",
        "е"
      ],
      [
        "в",
        "е"
      ],
      [
        "ж",
        "е"
      ],
      [
        "с",
        "и"
      ],
      [
        "м",
        "у"
      ],
      [
        "м",
        "и"
      ],
      [
        "о",
        "б"
      ],
      [
        "т",
        "и"
      ],
      [
        "в",
        "и"
      ],
      [
        "к",
        "и"
      ],
      [
        "д",
        "и"
      ],
      [
        "э",
        "то"
      ],
      [
        "л",
        "ю"
      ],
      [
        "о",
        "т"
      ],
      [
        "ч",
        "и"
      ],
      [
        "б",
        "ы"
      ],
      [
        "р",
        "у"
      ],
      [
        "ч",
        "а"
      ],
      [
        "п",
        "ри"
      ],
      [
        "ю",
        "т"
      ],
      [
        "с",
        "о"
      ],
      [
        "с",
        "а"
      ],
      [
        "в",
        "се"
      ],
      [
        "м",
        "е"
      ],
      [
        "с",
        "ть"
      ],
      [
        "л",
        "я"
      ],
      [
        "ц",
        "и"
      ],
      [
        "с",
        "то"
      ],
      [
        "ш",
        "е"
      ],
      [
        "щ",
        "е"
      ],
      [
        "ст",
        "а"
      ],
      [
        "ть",
        "ся"
      ],
      [
        "б",
        "е"
      ],
      [
        "г",
        "да"
      ],
      [
        "п",
        "е"
      ],
      [
        "ни",
        "я"
      ],
      [
        "ет",
        "ся"
      ],
      [
        "р",
        "ы"
      ],
      [
        "м",
        "ы"
      ],
      [
        "с",
        "ь"
      ],
      [
        "жи",
        "з"
      ],
      [
        "ра",
        "з"
      ],
      [
        "у",
        "т"
      ],
      [
        "ст",
        "и"
      ],
      [
        "ка",
        "к"
      ],
      [
        "ни",
        "е"
      ],
      [
        "ет",
        "е"
      ],
      [
        "л",
        "у"
      ],
      [
        "ш",
        "и"
      ],
      [
        "с",
        "ли"
      ],
      [
        "ко",
        "то"
      ],
      [
        "г",
        "и"
      ],
      [
        "и",
        "з"
      ],
      [
        "с",
        "во"
      ],
      [
        "о",
        "н"
      ],
      [
        "ж",
        "но"
      ],
      [
        "ва",
        "ть"
      ],
      [
        "б",
        "и"
      ],
      [
        "ра",
        "бо"
      ],
      [
        "г",
        "а"
      ],
      [
        "к",
        "у"
      ],
      [
        "п",
        "а"
      ],
      [
        "з",
        "на"
      ],
      [
        "щ",
        "и"
      ],
      [
        "ль",
        "но"
      ],
      [
        "н",
        "у"
      ],
      [
        "та",
        "к"
      ],
      [
        "д",
        "у"
      ],
      [
        "м",
        "ен"
      ],
      [
        "т",
        "у"
      ],
      [
        "ж",
        "а"
      ],
      [
        "П",
        "о"
      ],
      [
        "б",
        "я"
      ],
      [
        "п",
        "си"
      ],
      [
        "ко",
        "м"
      ],
      [
        "ны",
        "е"
      ],
      [
        "р",
        "я"
      ],
      [
        "ко",
        "гда"
      ],
      [
        "а",
        "к"
      ],
      [
        "п",
        "ре"
      ],
      [
        "ч",
        "у"
      ],
      [
        "кото",
        "ры"
      ],
      [
        "ни",
        "ма"
      ],
      [
        "ст",
        "ра"
      ],
      [
        "ко",
        "й"
      ],
      [
        "б",
        "у"
      ],
      [
        "д",
        "ру"
      ],
      [
        "т",
        "ся"
      ],
      [
        "на",
        "до"
      ],
      [
        "и",
        "с"
      ],
      [
        "ч",
        "но"
      ],
      [
        "т",
        "ы"
      ],
      [
        "де",
        "ла"
      ],
      [
        "се",
        "бя"
      ],
      [
        "ль",
        "ко"
      ],
      [
        "ло",
        "ве"
      ],
      [
        "б",
        "ле"
      ],
      [
        "е",
        "сли"
      ],
      [
        "н",
        "ь"
      ],
      [
        "и",
        "ли"
      ],
      [
        "ш",
        "а"
      ],
      [
        "жиз",
        "ни"
      ],
      [
        "п",
        "и"
      ],
      [
        "се",
        "бе"
      ],
      [
        "про",
        "бле"
      ],
      [
        "хо",
        "ди"
      ],
      [
        "са",
        "мо"
      ],
      [
        "н",
        "я"
      ],
      [
        "п",
        "ра"
      ],
      [
        "с",
        "ки"
      ],
      [
        "ко",
        "н"
      ],
      [
        "ен",
        "ь"
      ],
      [
        "ют",
        "ся"
      ],
      [
        "»",
        "."
      ],
      [
        "Н",
        "о"
      ],
      [
        "д",
        "ет"
      ],
      [
        "е",
        "сть"
      ],
      [
        "о",
        "на"
      ],
      [
        "че",
        "го"
      ],
      [
        "че",
        "лове"
      ],
      [
        "ен",
        "но"
      ],
      [
        "жиз",
        "нь"
      ],
      [
        "е",
        "й"
      ],
      [
        "о",
        "ни"
      ],
      [
        "с",
        "ле"
      ],
      [
        "х",
        "и"
      ],
      [
        "то",
        "му"
      ],
      [
        "»",
        ","
      ],
      [
        "в",
        "но"
      ],
      [
        "д",
        "ля"
      ],
      [
        "то",
        "м"
      ],
      [
        "об",
        "ще"
      ],
      [
        "с",
        "у"
      ],
      [
        "к",
        "то"
      ],
      [
        "ш",
        "ь"
      ],
      [
        "на",
        "я"
      ],
      [
        "хо",
        "ч"
      ],
      [
        "пси",
        "хо"
      ],
      [
        "в",
        "у"
      ],
      [
        "д",
        "но"
      ],
      [
        "то",
        "лько"
      ],
      [
        "ст",
        "во"
      ],
      [
        "го",
        "во"
      ],
      [
        "мо",
        "ж"
      ],
      [
        "ны",
        "й"
      ],
      [
        "же",
        "ла"
      ],
      [
        "дела",
        "ть"
      ],
      [
        "Н",
        "е"
      ],
      [
        "с",
        "ка"
      ],
      [
        "т",
        "ре"
      ],
      [
        "ц",
        "е"
      ],
      [
        "ва",
        "м"
      ],
      [
        "лю",
        "би"
      ],
      [
        "пе",
        "ре"
      ],
      [
        "в",
        "ет"
      ],
      [
        "с",
        "ы"
      ],
      [
        "с",
        "ча"
      ],
      [
        "ст",
        "ви"
      ],
      [
        "по",
        "д"
      ],
      [
        "бо",
        "й"
      ],
      [
        "ж",
        "ен"
      ],
      [
        "и",
        "н"
      ],
      [
        "сто",
        "я"
      ],
      [
        "мы",
        "с"
      ],
      [
        "психо",
        "ло"
      ],
      [
        "й",
        "те"
      ],
      [
        "п",
        "у"
      ],
      [
        "т",
        "я"
      ],
      [
        "ра",
        "с"
      ],
      [
        "му",
        "ж"
      ],
      [
        "от",
        "но"
      ],
      [
        "не",
        "го"
      ],
      [
        "но",
        "го"
      ],
      [
        "ва",
        "ет"
      ],
      [
        "что",
        "бы"
      ],
      [
        "хо",
        "ро"
      ],
      [
        "бо",
        "ль"
      ],
      [
        "пе",
        "р"
      ],
      [
        "б",
        "а"
      ],
      [
        "е",
        "м"
      ],
      [
        "с",
        "по"
      ],
      [
        "не",
        "е"
      ],
      [
        "ве",
        "р"
      ],
      [
        "бы",
        "ть"
      ],
      [
        "ци",
        "и"
      ],
      [
        "д",
        "ь"
      ],
      [
        "з",
        "ы"
      ],
      [
        "с",
        "об"
      ],
      [
        "с",
        "мыс"
      ],
      [
        "не",
        "т"
      ],
      [
        "во",
        "з"
      ],
      [
        "во",
        "т"
      ],
      [
        "мо",
        "жно"
      ],
      [
        "че",
        "м"
      ],
      [
        "ны",
        "х"
      ],
      [
        "при",
        "ме"
      ],
      [
        "сво",
        "и"
      ],
      [
        "рабо",
        "та"
      ],
      [
        "которы",
        "е"
      ],
      [
        "е",
        "го"
      ],
      [
        "е",
        "ще"
      ],
      [
        "л",
        "ет"
      ],
      [
        "м",
        "не"
      ],
      [
        "с",
        "лу"
      ],
      [
        "по",
        "тому"
      ],
      [
        "ва",
        "с"
      ],
      [
        "чу",
        "в"
      ],
      [
        "мож",
        "ет"
      ],
      [
        "Н",
        "а"
      ],
      [
        "в",
        "ре"
      ],
      [
        "п",
        "ы"
      ],
      [
        "но",
        "сть"
      ],
      [
        "ст",
        "е"
      ],
      [
        "ре",
        "н"
      ],
      [
        "мен",
        "я"
      ],
      [
        "отно",
        "ше"
      ],
      [
        "Э",
        "то"
      ],
      [
        "д",
        "ы"
      ],
      [
        "х",
        "а"
      ],
      [
        "ко",
        "го"
      ],
      [
        "ре",
        "а"
      ],
      [
        "до",
        "л"
      ],
      [
        "че",
        "ски"
      ],
      [
        "ди",
        "те"
      ],
      [
        "в",
        "ро"
      ],
      [
        "г",
        "у"
      ],
      [
        "д",
        "ете"
      ],
      [
        "п",
        "ла"
      ],
      [
        "с",
        "но"
      ],
      [
        "ю",
        "щи"
      ],
      [
        "на",
        "с"
      ],
      [
        "ны",
        "м"
      ],
      [
        "челове",
        "к"
      ],
      [
        "Е",
        "сли"
      ],
      [
        "у",
        "же"
      ],
      [
        "э",
        "мо"
      ],
      [
        "ни",
        "й"
      ],
      [
        "те",
        "льно"
      ],
      [
        "жи",
        "ть"
      ],
      [
        "ти",
        "те"
      ],
      [
        "ци",
        "я"
      ],
      [
        "пси",
        "хи"
      ],
      [
        "ходи",
        "т"
      ],
      [
        "сча",
        "ст"
      ],
      [
        "Ч",
        "то"
      ],
      [
        "в",
        "не"
      ],
      [
        "е",
        "му"
      ],
      [
        "о",
        "ч"
      ],
      [
        "т",
        "ут"
      ],
      [
        "ст",
        "ро"
      ],
      [
        "ст",
        "ва"
      ],
      [
        "те",
        "ль"
      ],
      [
        "де",
        "й"
      ],
      [
        "гово",
        "ри"
      ],
      [
        "Д",
        "а"
      ],
      [
        "К",
        "ак"
      ],
      [
        "в",
        "я"
      ],
      [
        "м",
        "я"
      ],
      [
        "п",
        "ь"
      ],
      [
        "у",
        "до"
      ],
      [
        "ни",
        "и"
      ],
      [
        "ко",
        "в"
      ],
      [
        "по",
        "лу"
      ],
      [
        "те",
        "р"
      ],
      [
        "да",
        "же"
      ],
      [
        "хоч",
        "ет"
      ],
      [
        "жела",
        "ния"
      ],
      [
        "приме",
        "р"
      ],
      [
        "в",
        "ля"
      ],
      [
        "л",
        "ся"
      ],
      [
        "м",
        "ь"
      ],
      [
        "п",
        "ло"
      ],
      [
        "ш",
        "о"
      ],
      [
        "се",
        "мь"
      ],
      [
        "хо",
        "тите"
      ],
      [
        "ви",
        "тся"
      ],
      [
        "лю",
        "б"
      ],
      [
        "лю",
        "бо"
      ],
      [
        "чи",
        "на"
      ],
      [
        "ду",
        "ма"
      ],
      [
        "вре",
        "мя"
      ],
      [
        "К",
        "о"
      ],
      [
        "е",
        "е"
      ],
      [
        "и",
        "х"
      ],
      [
        "р",
        "ма"
      ],
      [
        "с",
        "ко"
      ],
      [
        "с",
        "си"
      ],
      [
        "ц",
        "а"
      ],
      [
        "щ",
        "а"
      ],
      [
        "не",
        "вро"
      ],
      [
        "но",
        "сти"
      ],
      [
        "ст",
        "в"
      ],
      [
        "по",
        "нима"
      ],
      [
        "во",
        "про"
      ],
      [
        "во",
        "обще"
      ],
      [
        "ли",
        "з"
      ],
      [
        "те",
        "х"
      ],
      [
        "чи",
        "та"
      ],
      [
        "чи",
        "ны"
      ],
      [
        "ча",
        "ть"
      ],
      [
        "бе",
        "з"
      ],
      [
        "пробле",
        "ма"
      ],
      [
        "зы",
        "ва"
      ],
      [
        "вне",
        "ш"
      ],
      [
        "оч",
        "ень"
      ],
      [
        "П",
        "ро"
      ],
      [
        "Т",
        "ак"
      ],
      [
        "г",
        "ла"
      ],
      [
        "д",
        "я"
      ],
      [
        "д",
        "ра"
      ],
      [
        "к",
        "ти"
      ],
      [
        "л",
        "ы"
      ],
      [
        "н",
        "ра"
      ],
      [
        "н",
        "ут"
      ],
      [
        "с",
        "пе"
      ],
      [
        "с",
        "пра"
      ],
      [
        "у",
        "ве"
      ],
      [
        "то",
        "го"
      ],
      [
        "не",
        "р"
      ],
      [
        "но",
        "й"
      ],
      [
        "те",
        "м"
      ],
      [
        "мо",
        "й"
      ],
      [
        "со",
        "бой"
      ],
      [
        "ту",
        "а"
      ],
      [
        "счаст",
        "ли"
      ],
      [
        "!",
        "»"
      ],
      [
        "в",
        "ь"
      ],
      [
        "к",
        "е"
      ],
      [
        "р",
        "ет"
      ],
      [
        "с",
        "ло"
      ],
      [
        "ф",
        "е"
      ],
      [
        "ф",
        "о"
      ],
      [
        "ни",
        "х"
      ],
      [
        "ст",
        "у"
      ],
      [
        "ст",
        "ву"
      ],
      [
        "по",
        "л"
      ],
      [
        "по",
        "мо"
      ],
      [
        "по",
        "сле"
      ],
      [
        "ро",
        "дите"
      ],
      [
        "во",
        "ль"
      ],
      [
        "те",
        "ре"
      ],
      [
        "про",
        "сто"
      ],
      [
        "са",
        "ми"
      ],
      [
        "ста",
        "но"
      ],
      [
        "лу",
        "ч"
      ],
      [
        "мен",
        "но"
      ],
      [
        "стви",
        "е"
      ],
      [
        "жен",
        "щи"
      ],
      [
        "отноше",
        "ния"
      ],
      [
        "з",
        "у"
      ],
      [
        "и",
        "г"
      ],
      [
        "к",
        "ру"
      ],
      [
        "м",
        "ного"
      ],
      [
        "р",
        "т"
      ],
      [
        "с",
        "чита"
      ],
      [
        "т",
        "ра"
      ],
      [
        "я",
        "с"
      ],
      [
        "не",
        "чно"
      ],
      [
        "мо",
        "г"
      ],
      [
        "та",
        "кой"
      ],
      [
        "хо",
        "тя"
      ],
      [
        "жи",
        "в"
      ],
      [
        "си",
        "туа"
      ],
      [
        "лю",
        "дей"
      ],
      [
        "все",
        "гда"
      ],
      [
        "пробле",
        "мы"
      ],
      [
        "хоч",
        "ется"
      ],
      [
        "В",
        "ы"
      ],
      [
        "П",
        "ри"
      ],
      [
        "б",
        "ра"
      ],
      [
        "и",
        "менно"
      ],
      [
        "о",
        "бо"
      ],
      [
        "о",
        "ди"
      ],
      [
        "ф",
        "и"
      ],
      [
        "ч",
        "ь"
      ],
      [
        "э",
        "ти"
      ],
      [
        "ра",
        "до"
      ],
      [
        "ре",
        "ши"
      ],
      [
        "ли",
        "к"
      ],
      [
        "ка",
        "ж"
      ],
      [
        "ль",
        "ная"
      ],
      [
        "про",
        "ми"
      ],
      [
        "об",
        "ра"
      ],
      [
        "это",
        "м"
      ],
      [
        "это",
        "го"
      ],
      [
        "это",
        "му"
      ],
      [
        "лю",
        "ди"
      ],
      [
        "ци",
        "она"
      ],
      [
        "рабо",
        "ту"
      ],
      [
        "дру",
        "ги"
      ],
      [
        "кон",
        "ф"
      ],
      [
        "тре",
        "во"
      ],
      [
        "ин",
        "тере"
      ],
      [
        "невро",
        "ти"
      ],
      [
        "луч",
        "ше"
      ],
      [
        "проми",
        "с"
      ],
      [
        "Н",
        "у"
      ],
      [
        "г",
        "е"
      ],
      [
        "д",
        "на"
      ],
      [
        "д",
        "ень"
      ],
      [
        "к",
        "ри"
      ],
      [
        "но",
        "к"
      ],
      [
        "ва",
        "ние"
      ],
      [
        "ре",
        "ше"
      ],
      [
        "да",
        "ет"
      ],
      [
        "вы",
        "й"
      ],
      [
        "об",
        "раз"
      ],
      [
        "ци",
        "а"
      ],
      [
        "пре",
        "д"
      ],
      [
        "которы",
        "й"
      ],
      [
        "дру",
        "го"
      ],
      [
        "ска",
        "за"
      ],
      [
        "хоро",
        "шо"
      ],
      [
        "спо",
        "соб"
      ],
      [
        "пы",
        "та"
      ],
      [
        "дете",
        "й"
      ],
      [
        "удо",
        "воль"
      ],
      [
        "б",
        "ро"
      ],
      [
        "в",
        "ле"
      ],
      [
        "в",
        "нут"
      ],
      [
        "г",
        "де"
      ],
      [
        "з",
        "во"
      ],
      [
        "к",
        "ла"
      ],
      [
        "н",
        "но"
      ],
      [
        "у",
        "ю"
      ],
      [
        "у",
        "чи"
      ],
      [
        "я",
        "за"
      ],
      [
        "ни",
        "чего"
      ],
      [
        "ва",
        "ться"
      ],
      [
        "ва",
        "жно"
      ],
      [
        "ли",
        "сь"
      ],
      [
        "хо",
        "чу"
      ],
      [
        "ло",
        "сь"
      ],
      [
        "бо",
        "р"
      ],
      [
        "за",
        "ви"
      ],
      [
        "де",
        "ло"
      ],
      [
        "про",
        "ис"
      ],
      [
        "ны",
        "ми"
      ],
      [
        "жи",
        "ва"
      ],
      [
        "ле",
        "й"
      ],
      [
        "же",
        "на"
      ],
      [
        "ки",
        "е"
      ],
      [
        "са",
        "м"
      ],
      [
        "все",
        "го"
      ],
      [
        "бе",
        "нок"
      ],
      [
        "кото",
        "ро"
      ],
      [
        "сво",
        "ю"
      ],
      [
        "сво",
        "ей"
      ],
      [
        "зна",
        "чи"
      ],
      [
        "ну",
        "ю"
      ],
      [
        "ну",
        "жно"
      ],
      [
        "воз",
        "можно"
      ],
      [
        "чув",
        "ство"
      ],
      [
        "пло",
        "хо"
      ],
      [
        "спра",
        "ши"
      ],
      [
        "уве",
        "рен"
      ],
      [
        "О",
        "н"
      ],
      [
        "а",
        "л"
      ],
      [
        "в",
        "ни"
      ],
      [
        "в",
        "ся"
      ],
      [
        "о",
        "дно"
      ],
      [
        "п",
        "я"
      ],
      [
        "т",
        "но"
      ],
      [
        "у",
        "ж"
      ],
      [
        "ц",
        "ен"
      ],
      [
        "э",
        "та"
      ],
      [
        "я",
        "х"
      ],
      [
        "то",
        "гда"
      ],
      [
        "не",
        "й"
      ],
      [
        "на",
        "пример"
      ],
      [
        "ни",
        "ть"
      ],
      [
        "ст",
        "ве"
      ],
      [
        "ко",
        "нечно"
      ],
      [
        "ре",
        "бенок"
      ],
      [
        "ли",
        "чно"
      ],
      [
        "ка",
        "я"
      ],
      [
        "ло",
        "ги"
      ],
      [
        "до",
        "м"
      ],
      [
        "до",
        "ро"
      ],
      [
        "де",
        "ть"
      ],
      [
        "де",
        "ле"
      ],
      [
        "че",
        "му"
      ],
      [
        "об",
        "яза"
      ],
      [
        "ви",
        "ть"
      ],
      [
        "при",
        "нима"
      ],
      [
        "со",
        "вет"
      ],
      [
        "раз",
        "у"
      ],
      [
        "ком",
        "промис"
      ],
      [
        "ис",
        "ка"
      ],
      [
        "ня",
        "ть"
      ],
      [
        "йте",
        "сь"
      ],
      [
        "боль",
        "ше"
      ],
      [
        "смыс",
        "л"
      ],
      [
        "люб",
        "ви"
      ],
      [
        "любо",
        "вь"
      ],
      [
        "нра",
        "вится"
      ],
      [
        "счастли",
        "вы"
      ],
      [
        "мог",
        "ут"
      ],
      [
        "реши",
        "ть"
      ],
      [
        "конф",
        "лик"
      ],
      [
        "?",
        "»"
      ],
      [
        "В",
        "е"
      ],
      [
        "В",
        "се"
      ],
      [
        "Н",
        "и"
      ],
      [
        "О",
        "т"
      ],
      [
        "а",
        "н"
      ],
      [
        "в",
        "з"
      ],
      [
        "в",
        "ме"
      ],
      [
        "г",
        "ля"
      ],
      [
        "к",
        "ра"
      ],
      [
        "о",
        "цен"
      ],
      [
        "п",
        "ря"
      ],
      [
        "с",
        "ет"
      ],
      [
        "я",
        "сь"
      ],
      [
        "не",
        "до"
      ],
      [
        "на",
        "д"
      ],
      [
        "ни",
        "ка"
      ],
      [
        "ко",
        "е"
      ],
      [
        "по",
        "сту"
      ],
      [
        "во",
        "й"
      ],
      [
        "те",
        "ря"
      ],
      [
        "ль",
        "та"
      ],
      [
        "ль",
        "ные"
      ],
      [
        "да",
        "ть"
      ],
      [
        "хо",
        "те"
      ],
      [
        "до",
        "ма"
      ],
      [
        "бо",
        "ле"
      ],
      [
        "за",
        "ра"
      ],
      [
        "ма",
        "я"
      ],
      [
        "ле",
        "г"
      ],
      [
        "об",
        "ъ"
      ],
      [
        "ки",
        "й"
      ],
      [
        "ки",
        "м"
      ],
      [
        "лю",
        "бой"
      ],
      [
        "со",
        "в"
      ],
      [
        "все",
        "м"
      ],
      [
        "сто",
        "ри"
      ],
      [
        "ста",
        "ти"
      ],
      [
        "ние",
        "м"
      ],
      [
        "которы",
        "х"
      ],
      [
        "бу",
        "дет"
      ],
      [
        "само",
        "оцен"
      ],
      [
        "вно",
        "е"
      ],
      [
        "сча",
        "сть"
      ],
      [
        "психоло",
        "ги"
      ],
      [
        "смыс",
        "ла"
      ],
      [
        "слу",
        "ча"
      ],
      [
        "Ко",
        "гда"
      ],
      [
        "вопро",
        "с"
      ],
      [
        "зави",
        "си"
      ],
      [
        "проис",
        "ходит"
      ],
      [
        "значи",
        "т"
      ],
      [
        "К",
        "а"
      ],
      [
        "М",
        "о"
      ],
      [
        "д",
        "ут"
      ],
      [
        "е",
        "з"
      ],
      [
        "ж",
        "у"
      ],
      [
        "з",
        "и"
      ],
      [
        "и",
        "ме"
      ],
      [
        "й",
        "ти"
      ],
      [
        "к",
        "ре"
      ],
      [
        "к",
        "лю"
      ],
      [
        "л",
        "ен"
      ],
      [
        "л",
        "енно"
      ],
      [
        "о",
        "м"
      ],
      [
        "о",
        "со"
      ],
      [
        "о",
        "дна"
      ],
      [
        "у",
        "ме"
      ],
      [
        "у",
        "ще"
      ],
      [
        "но",
        "рма"
      ],
      [
        "на",
        "чина"
      ],
      [
        "ни",
        "м"
      ],
      [
        "ра",
        "я"
      ],
      [
        "по",
        "во"
      ],
      [
        "по",
        "ло"
      ],
      [
        "ва",
        "я"
      ],
      [
        "во",
        "л"
      ],
      [
        "та",
        "м"
      ],
      [
        "ла",
        "га"
      ],
      [
        "ло",
        "м"
      ],
      [
        "де",
        "р"
      ],
      [
        "вы",
        "ра"
      ],
      [
        "жи",
        "вать"
      ],
      [
        "си",
        "ли"
      ],
      [
        "бы",
        "ло"
      ],
      [
        "ча",
        "с"
      ],
      [
        "при",
        "вы"
      ],
      [
        "ме",
        "ч"
      ],
      [
        "рабо",
        "те"
      ],
      [
        "жа",
        "ть"
      ],
      [
        "жа",
        "ющи"
      ],
      [
        "По",
        "тому"
      ],
      [
        "пре",
        "де"
      ],
      [
        "стра",
        "ш"
      ],
      [
        "пи",
        "ть"
      ],
      [
        "ходи",
        "ть"
      ],
      [
        "пра",
        "ви"
      ],
      [
        "ски",
        "й"
      ],
      [
        "сле",
        "д"
      ],
      [
        "психоло",
        "гу"
      ],
      [
        "муж",
        "чины"
      ],
      [
        "пер",
        "ь"
      ],
      [
        "внеш",
        "ность"
      ],
      [
        "зу",
        "льта"
      ],
      [
        "жив",
        "ут"
      ],
      [
        "удоволь",
        "ствие"
      ],
      [
        "обяза",
        "тельно"
      ],
      [
        "З",
        "а"
      ],
      [
        "О",
        "Л"
      ],
      [
        "Р",
        "а"
      ],
      [
        "а",
        "р"
      ],
      [
        "б",
        "ен"
      ],
      [
        "ж",
        "ды"
      ],
      [
        "й",
        "час"
      ],
      [
        "к",
        "рас"
      ],
      [
        "м",
        "но"
      ],
      [
        "о",
        "ста"
      ],
      [
        "о",
        "кру"
      ],
      [
        "о",
        "преде"
      ],
      [
        "с",
        "мо"
      ],
      [
        "т",
        "ро"
      ],
      [
        "т",
        "ри"
      ],
      [
        "ю",
        "сь"
      ],
      [
        "не",
        "м"
      ],
      [
        "на",
        "р"
      ],
      [
        "на",
        "ча"
      ],
      [
        "на",
        "стоя"
      ],
      [
        "ра",
        "к"
      ],
      [
        "по",
        "ка"
      ],
      [
        "по",
        "люби"
      ],
      [
        "по",
        "стоя"
      ],
      [
        "ва",
        "ри"
      ],
      [
        "ва",
        "ша"
      ],
      [
        "ва",
        "ются"
      ],
      [
        "во",
        "с"
      ],
      [
        "ре",
        "бен"
      ],
      [
        "ли",
        "бо"
      ],
      [
        "ли",
        "чи"
      ],
      [
        "ли",
        "шь"
      ],
      [
        "го",
        "то"
      ],
      [
        "те",
        "а"
      ],
      [
        "ка",
        "кой"
      ],
      [
        "ка",
        "зыва"
      ],
      [
        "се",
        "р"
      ],
      [
        "се",
        "йчас"
      ],
      [
        "ль",
        "ных"
      ],
      [
        "хо",
        "че"
      ],
      [
        "де",
        "пре"
      ],
      [
        "про",
        "си"
      ],
      [
        "про",
        "ти"
      ],
      [
        "про",
        "дол"
      ],
      [
        "че",
        "ре"
      ],
      [
        "вы",
        "бра"
      ],
      [
        "жи",
        "вет"
      ],
      [
        "при",
        "чины"
      ],
      [
        "со",
        "стоя"
      ],
      [
        "ше",
        "й"
      ],
      [
        "раз",
        "дра"
      ],
      [
        "ши",
        "х"
      ],
      [
        "стра",
        "не"
      ],
      [
        "су",
        "ще"
      ],
      [
        "хоро",
        "ши"
      ],
      [
        "работа",
        "ет"
      ],
      [
        "ха",
        "рак"
      ],
      [
        "говори",
        "ть"
      ],
      [
        "пол",
        "не"
      ],
      [
        "родите",
        "ли"
      ],
      [
        "оди",
        "н"
      ],
      [
        "реше",
        "ние"
      ],
      [
        "ал",
        "кого"
      ],
      [
        "вме",
        "сто"
      ],
      [
        "окру",
        "жающи"
      ],
      [
        "ребен",
        "ка"
      ],
      [
        "хоче",
        "шь"
      ],
      [
        ")",
        "."
      ],
      [
        "Л",
        "ю"
      ],
      [
        "М",
        "не"
      ],
      [
        "С",
        "а"
      ],
      [
        "Т",
        "и"
      ],
      [
        "б",
        "ла"
      ],
      [
        "в",
        "то"
      ],
      [
        "в",
        "ст"
      ],
      [
        "д",
        "ня"
      ],
      [
        "е",
        "ла"
      ],
      [
        "е",
        "шь"
      ],
      [
        "з",
        "о"
      ],
      [
        "з",
        "ре"
      ],
      [
        "и",
        "д"
      ],
      [
        "и",
        "м"
      ],
      [
        "и",
        "щ"
      ],
      [
        "о",
        "щ"
      ],
      [
        "о",
        "до"
      ],
      [
        "п",
        "ле"
      ],
      [
        "р",
        "б"
      ],
      [
        "с",
        "па"
      ],
      [
        "с",
        "делать"
      ],
      [
        "т",
        "ру"
      ],
      [
        "у",
        "да"
      ],
      [
        "х",
        "ва"
      ],
      [
        "ч",
        "ки"
      ],
      [
        "ш",
        "ка"
      ],
      [
        "ш",
        "ки"
      ],
      [
        "то",
        "чно"
      ],
      [
        "но",
        "м"
      ],
      [
        "ни",
        "ми"
      ],
      [
        "ни",
        "га"
      ],
      [
        "по",
        "р"
      ],
      [
        "по",
        "да"
      ],
      [
        "по",
        "до"
      ],
      [
        "по",
        "ве"
      ],
      [
        "по",
        "том"
      ],
      [
        "ро",
        "ва"
      ],
      [
        "ва",
        "ют"
      ],
      [
        "во",
        "ди"
      ],
      [
        "ре",
        "д"
      ],
      [
        "ре",
        "ак"
      ],
      [
        "ре",
        "ша"
      ],
      [
        "ль",
        "ный"
      ],
      [
        "ри",
        "т"
      ],
      [
        "хо",
        "д"
      ],
      [
        "бо",
        "и"
      ],
      [
        "де",
        "ния"
      ],
      [
        "ма",
        "ть"
      ],
      [
        "че",
        "е"
      ],
      [
        "вы",
        "е"
      ],
      [
        "жи",
        "тель"
      ],
      [
        "ве",
        "дь"
      ],
      [
        "ми",
        "р"
      ],
      [
        "ми",
        "ра"
      ],
      [
        "ви",
        "ться"
      ],
      [
        "бы",
        "л"
      ],
      [
        "бы",
        "ла"
      ],
      [
        "ча",
        "сто"
      ],
      [
        "со",
        "ц"
      ],
      [
        "ци",
        "ю"
      ],
      [
        "сто",
        "ро"
      ],
      [
        "раз",
        "ви"
      ],
      [
        "ги",
        "е"
      ],
      [
        "би",
        "ра"
      ],
      [
        "льно",
        "й"
      ],
      [
        "ту",
        "да"
      ],
      [
        "По",
        "чему"
      ],
      [
        "бу",
        "д"
      ],
      [
        "бу",
        "ду"
      ],
      [
        "дру",
        "г"
      ],
      [
        "дру",
        "з"
      ],
      [
        "пробле",
        "м"
      ],
      [
        "само",
        "е"
      ],
      [
        "само",
        "м"
      ],
      [
        "челове",
        "ку"
      ],
      [
        "стви",
        "я"
      ],
      [
        "ба",
        "ты"
      ],
      [
        "свои",
        "м"
      ],
      [
        "свои",
        "х"
      ],
      [
        "чув",
        "ству"
      ],
      [
        "пы",
        "т"
      ],
      [
        "реа",
        "лиз"
      ],
      [
        "чески",
        "е"
      ],
      [
        "сно",
        "ва"
      ],
      [
        "эмо",
        "ции"
      ],
      [
        "эмо",
        "циона"
      ],
      [
        "полу",
        "ча"
      ],
      [
        "вля",
        "ется"
      ],
      [
        "дума",
        "ют"
      ],
      [
        "ско",
        "лько"
      ],
      [
        "ств",
        "ен"
      ],
      [
        "ств",
        "енно"
      ],
      [
        "дя",
        "т"
      ],
      [
        "спе",
        "циа"
      ],
      [
        "женщи",
        "на"
      ],
      [
        "иг",
        "ры"
      ],
      [
        "хотя",
        "т"
      ],
      [
        "эти",
        "м"
      ],
      [
        "каж",
[...]
